{
  "version": "1.0",
  "truncation": null,
  "padding": null,
  "added_tokens": [
    {
      "id": 0,
      "content": "<|endoftext|>",
      "single_word": false,
      "lstrip": false,
      "rstrip": false,
      "normalized": false,
      "special": true
    },
    {
      "id": 1,
      "content": "<|im_start|>",
      "single_word": false,
      "lstrip": false,
      "rstrip": false,
      "normalized": false,
      "special": true
    },
    {
      "id": 2,
      "content": "<|im_end|>",
      "single_word": false,
      "lstrip": false,
      "rstrip": false,
      "normalized": false,
      "special": true
    },
    {
      "id": 3,
      "content": "<|object_ref_start|>",
      "single_word": false,
      "lstrip": false,
      "rstrip": false,
      "normalized": false,
      "special": true
    },
    {
      "id": 4,
      "content": "<|object_ref_end|>",
      "single_word": false,
      "lstrip": false,
      "rstrip": false,
      "normalized": false,
      "special": true
    },
    {
      "id": 5,
      "content": "<|box_start|>",
      "single_word": false,
      "lstrip": false,
      "rstrip": false,
      "normalized": false,
      "special": true
    },
    {
      "id": 6,
      "content": "<|box_end|>",
      "single_word": false,
      "lstrip": false,
      "rstrip": false,
      "normalized": false,
      "special": true
    },
    {
      "id": 7,
      "content": "<|quad_start|>",
      "single_word": false,
      "lstrip": false,
      "rstrip": false,
      "normalized": false,
      "special": true
    },
    {
      "id": 8,
      "content": "<|quad_end|>",
      "single_word": false,
      "lstrip": false,
      "rstrip": false,
      "normalized": false,
      "special": true
    },
    {
      "id": 9,
      "content": "<|vision_start|>",
      "single_word": false,
      "lstrip": false,
      "rstrip": false,
      "normalized": false,
      "special": true
    },
    {
      "id": 10,
      "content": "<|vision_end|>",
      "single_word": false,
      "lstrip": false,
      "rstrip": false,
      "normalized": false,
      "special": true
    },
    {
      "id": 11,
      "content": "<|vision_pad|>",
      "single_word": false,
      "lstrip": false,
      "rstrip": false,
      "normalized": false,
      "special": true
    },
    {
      "id": 12,
      "content": "<|image_pad|>",
      "single_word": false,
      "lstrip": false,
      "rstrip": false,
      "normalized": false,
      "special": true
    },
    {
      "id": 13,
      "content": "<|video_pad|>",
      "single_word": false,
      "lstrip": false,
      "rstrip": false,
      "normalized": false,
      "special": true
    },
    {
      "id": 14,
      "content": "<|audio_start|>",
      "single_word": false,
      "lstrip": false,
      "rstrip": false,
      "normalized": false,
      "special": true
    },
    {
      "id": 15,
      "content": "<|audio_end|>",
      "single_word": false,
      "lstrip": false,
      "rstrip": false,
      "normalized": false,
      "special": true
    },
    {
      "id": 16,
      "content": "<|audio_pad|>",
      "single_word": false,
      "lstrip": false,
      "rstrip": false,
      "normalized": false,
      "special": true
    },
    {
      "id": 17,
      "content": "<tts_pad>",
      "single_word": false,
      "lstrip": false,
      "rstrip": false,
      "normalized": false,
      "special": true
    },
    {
      "id": 18,
      "content": "<tts_text_bos>",
      "single_word": false,
      "lstrip": false,
      "rstrip": false,
      "normalized": false,
      "special": true
    },
    {
      "id": 19,
      "content": "<tts_text_eod>",
      "single_word": false,
      "lstrip": false,
      "rstrip": false,
      "normalized": false,
      "special": true
    },
    {
      "id": 20,
      "content": "<tts_text_bos_single>",
      "single_word": false,
      "lstrip": false,
      "rstrip": false,
      "normalized": false,
      "special": true
    },
    {
      "id": 21,
      "content": "<tool_call>",
      "single_word": false,
      "lstrip": false,
      "rstrip": false,
      "normalized": false,
      "special": false
    },
    {
      "id": 22,
      "content": "</tool_call>",
      "single_word": false,
      "lstrip": false,
      "rstrip": false,
      "normalized": false,
      "special": false
    },
    {
      "id": 23,
      "content": "<tool_response>",
      "single_word": false,
      "lstrip": false,
      "rstrip": false,
      "normalized": false,
      "special": false
    },
    {
      "id": 24,
      "content": "</tool_response>",
      "single_word": false,
      "lstrip": false,
      "rstrip": false,
      "normalized": false,
      "special": false
    },
    {
      "id": 25,
      "content": "<think>",
      "single_word": false,
      "lstrip": false,
      "rstrip": false,
      "normalized": false,
      "special": false
    },
    {
      "id": 26,
      "content": "</think>",
      "single_word": false,
      "lstrip": false,
      "rstrip": false,
      "normalized": false,
      "special": false
    },
    {
      "id": 27,
      "content": "<|buffer1|>",
      "single_word": false,
      "lstrip": false,
      "rstrip": false,
      "normalized": false,
      "special": false
    },
    {
      "id": 28,
      "content": "<|buffer2|>",
      "single_word": false,
      "lstrip": false,
      "rstrip": false,
      "normalized": false,
      "special": false
    },
    {
      "id": 29,
      "content": "<|buffer3|>",
      "single_word": false,
      "lstrip": false,
      "rstrip": false,
      "normalized": false,
      "special": false
    },
    {
      "id": 30,
      "content": "<|buffer4|>",
      "single_word": false,
      "lstrip": false,
      "rstrip": false,
      "normalized": false,
      "special": false
    },
    {
      "id": 31,
      "content": "<|buffer5|>",
      "single_word": false,
      "lstrip": false,
      "rstrip": false,
      "normalized": false,
      "special": false
    },
    {
      "id": 32,
      "content": "<|buffer6|>",
      "single_word": false,
      "lstrip": false,
      "rstrip": false,
      "normalized": false,
      "special": false
    },
    {
      "id": 33,
      "content": "<|buffer7|>",
      "single_word": false,
      "lstrip": false,
      "rstrip": false,
      "normalized": false,
      "special": false
    },
    {
      "id": 34,
      "content": "<|buffer8|>",
      "single_word": false,
      "lstrip": false,
      "rstrip": false,
      "normalized": false,
      "special": false
    },
    {
      "id": 35,
      "content": "<|buffer9|>",
      "single_word": false,
      "lstrip": false,
      "rstrip": false,
      "normalized": false,
      "special": false
    }
  ],
  "normalizer": null,
  "pre_tokenizer": {
    "type": "ByteLevel",
    "add_prefix_space": false,
    "trim_offsets": true,
    "use_regex": true
  },
  "post_processor": null,
  "decoder": {
    "type": "ByteLevel",
    "add_prefix_space": true,
    "trim_offsets": true,
    "use_regex": true
  },
  "model": {
    "type": "BPE",
    "dropout": null,
    "unk_token": null,
    "continuing_subword_prefix": null,
    "end_of_word_suffix": null,
    "fuse_unk": false,
    "byte_fallback": false,
    "ignore_merges": false,
    "vocab": {
      "<|endoftext|>": 0,
      "<|im_start|>": 1,
      "<|im_end|>": 2,
      "<|object_ref_start|>": 3,
      "<|object_ref_end|>": 4,
      "<|box_start|>": 5,
      "<|box_end|>": 6,
      "<|quad_start|>": 7,
      "<|quad_end|>": 8,
      "<|vision_start|>": 9,
      "<|vision_end|>": 10,
      "<|vision_pad|>": 11,
      "<|image_pad|>": 12,
      "<|video_pad|>": 13,
      "<|audio_start|>": 14,
      "<|audio_end|>": 15,
      "<|audio_pad|>": 16,
      "<tts_pad>": 17,
      "<tts_text_bos>": 18,
      "<tts_text_eod>": 19,
      "<tts_text_bos_single>": 20,
      "<tool_call>": 21,
      "</tool_call>": 22,
      "<tool_response>": 23,
      "</tool_response>": 24,
      "<think>": 25,
      "</think>": 26,
      "<|buffer1|>": 27,
      "<|buffer2|>": 28,
      "<|buffer3|>": 29,
      "<|buffer4|>": 30,
      "<|buffer5|>": 31,
      "<|buffer6|>": 32,
      "<|buffer7|>": 33,
      "<|buffer8|>": 34,
      "<|buffer9|>": 35,
      "!": 36,
      "\"": 37,
      "#": 38,
      "$": 39,
      "%": 40,
      "&": 41,
      "'": 42,
      "(": 43,
      ")": 44,
      "*": 45,
      "+": 46,
      ",": 47,
      "-": 48,
      ".": 49,
      "/": 50,
      "0": 51,
      "1": 52,
      "2": 53,
      "3": 54,
      "4": 55,
      "5": 56,
      "6": 57,
      "7": 58,
      "8": 59,
      "9": 60,
      ":": 61,
      ";": 62,
      "<": 63,
      "=": 64,
      ">": 65,
      "?": 66,
      "@": 67,
      "A": 68,
      "B": 69,
      "C": 70,
      "D": 71,
      "E": 72,
      "F": 73,
      "G": 74,
      "H": 75,
      "I": 76,
      "J": 77,
      "K": 78,
      "L": 79,
      "M": 80,
      "N": 81,
      "O": 82,
      "P": 83,
      "Q": 84,
      "R": 85,
      "S": 86,
      "T": 87,
      "U": 88,
      "V": 89,
      "W": 90,
      "X": 91,
      "Y": 92,
      "Z": 93,
      "[": 94,
      "\\": 95,
      "]": 96,
      "^": 97,
      "_": 98,
      "`": 99,
      "a": 100,
      "b": 101,
      "c": 102,
      "d": 103,
      "e": 104,
      "f": 105,
      "g": 106,
      "h": 107,
      "i": 108,
      "j": 109,
      "k": 110,
      "l": 111,
      "m": 112,
      "n": 113,
      "o": 114,
      "p": 115,
      "q": 116,
      "r": 117,
      "s": 118,
      "t": 119,
      "u": 120,
      "v": 121,
      "w": 122,
      "x": 123,
      "y": 124,
      "z": 125,
      "{": 126,
      "|": 127,
      "}": 128,
      "~": 129,
      "¡": 130,
      "¢": 131,
      "£": 132,
      "¤": 133,
      "¥": 134,
      "¦": 135,
      "§": 136,
      "¨": 137,
      "©": 138,
      "ª": 139,
      "«": 140,
      "¬": 141,
      "®": 142,
      "¯": 143,
      "°": 144,
      "±": 145,
      "²": 146,
      "³": 147,
      "´": 148,
      "µ": 149,
      "¶": 150,
      "·": 151,
      "¸": 152,
      "¹": 153,
      "º": 154,
      "»": 155,
      "¼": 156,
      "½": 157,
      "¾": 158,
      "¿": 159,
      "À": 160,
      "Á": 161,
      "Â": 162,
      "Ã": 163,
      "Ä": 164,
      "Å": 165,
      "Æ": 166,
      "Ç": 167,
      "È": 168,
      "É": 169,
      "Ê": 170,
      "Ë": 171,
      "Ì": 172,
      "Í": 173,
      "Î": 174,
      "Ï": 175,
      "Ð": 176,
      "Ñ": 177,
      "Ò": 178,
      "Ó": 179,
      "Ô": 180,
      "Õ": 181,
      "Ö": 182,
      "×": 183,
      "Ø": 184,
      "Ù": 185,
      "Ú": 186,
      "Û": 187,
      "Ü": 188,
      "Ý": 189,
      "Þ": 190,
      "ß": 191,
      "à": 192,
      "á": 193,
      "â": 194,
      "ã": 195,
      "ä": 196,
      "å": 197,
      "æ": 198,
      "ç": 199,
      "è": 200,
      "é": 201,
      "ê": 202,
      "ë": 203,
      "ì": 204,
      "í": 205,
      "î": 206,
      "ï": 207,
      "ð": 208,
      "ñ": 209,
      "ò": 210,
      "ó": 211,
      "ô": 212,
      "õ": 213,
      "ö": 214,
      "÷": 215,
      "ø": 216,
      "ù": 217,
      "ú": 218,
      "û": 219,
      "ü": 220,
      "ý": 221,
      "þ": 222,
      "ÿ": 223,
      "Ā": 224,
      "ā": 225,
      "Ă": 226,
      "ă": 227,
      "Ą": 228,
      "ą": 229,
      "Ć": 230,
      "ć": 231,
      "Ĉ": 232,
      "ĉ": 233,
      "Ċ": 234,
      "ċ": 235,
      "Č": 236,
      "č": 237,
      "Ď": 238,
      "ď": 239,
      "Đ": 240,
      "đ": 241,
      "Ē": 242,
      "ē": 243,
      "Ĕ": 244,
      "ĕ": 245,
      "Ė": 246,
      "ė": 247,
      "Ę": 248,
      "ę": 249,
      "Ě": 250,
      "ě": 251,
      "Ĝ": 252,
      "ĝ": 253,
      "Ğ": 254,
      "ğ": 255,
      "Ġ": 256,
      "ġ": 257,
      "Ģ": 258,
      "ģ": 259,
      "Ĥ": 260,
      "ĥ": 261,
      "Ħ": 262,
      "ħ": 263,
      "Ĩ": 264,
      "ĩ": 265,
      "Ī": 266,
      "ī": 267,
      "Ĭ": 268,
      "ĭ": 269,
      "Į": 270,
      "į": 271,
      "İ": 272,
      "ı": 273,
      "Ĳ": 274,
      "ĳ": 275,
      "Ĵ": 276,
      "ĵ": 277,
      "Ķ": 278,
      "ķ": 279,
      "ĸ": 280,
      "Ĺ": 281,
      "ĺ": 282,
      "Ļ": 283,
      "ļ": 284,
      "Ľ": 285,
      "ľ": 286,
      "Ŀ": 287,
      "ŀ": 288,
      "Ł": 289,
      "ł": 290,
      "Ń": 291,
      "ï¼": 292,
      "ä¸": 293,
      "ï¼Į": 294,
      "çļ": 295,
      "çļĦ": 296,
      "Ġt": 297,
      "ãĢ": 298,
      "Ġa": 299,
      "he": 300,
      "in": 301,
      "ãĢĤ": 302,
      "äº": 303,
      "ä»": 304,
      "åı": 305,
      "re": 306,
      "ä½": 307,
      "æľ": 308,
      "Ġthe": 309,
      "on": 310,
      "er": 311,
      "**": 312,
      "è¿": 313,
      "at": 314,
      "åħ": 315,
      "Ġs": 316,
      "Ġc": 317,
      "åĪ": 318,
      "Ġo": 319,
      "å®": 320,
      "çĶ": 321,
      "æĪ": 322,
      "åĬ": 323,
      "is": 324,
      "an": 325,
      "ou": 326,
      "en": 327,
      "åľ": 328,
      "es": 329,
      "å¤": 330,
      "åĴ": 331,
      "ĠĠ": 332,
      "æĺ": 333,
      "åĴĮ": 334,
      "åĲ": 335,
      "or": 336,
      "ï¼ļ": 337,
      "it": 338,
      "Ġw": 339,
      "æķ": 340,
      "Ġf": 341,
      "ç»": 342,
      "è¯": 343,
      "Ġp": 344,
      "ãĢģ": 345,
      "Ġan": 346,
      "æĸ": 347,
      "è®": 348,
      "ä¸Ģ": 349,
      "ing": 350,
      "Ġm": 351,
      "al": 352,
      "Ġin": 353,
      "Ġof": 354,
      "ĥ½": 355,
      "éĢ": 356,
      "æĺ¯": 357,
      "ä»¥": 358,
      "Ġ**": 359,
      "åı¯": 360,
      "le": 361,
      "åŃ": 362,
      "Ġb": 363,
      "Ġto": 364,
      "ä¹": 365,
      "ä¸ª": 366,
      "åº": 367,
      "çĶ¨": 368,
      "åľ¨": 369,
      "ar": 370,
      "ion": 371,
      "èĥ½": 372,
      "Ġd": 373,
      "**ï¼ļ": 374,
      "ic": 375,
      "Ġand": 376,
      "å°": 377,
      "æĹ": 378,
      "ä¼": 379,
      "éĩ": 380,
      "å¸": 381,
      "ed": 382,
      "åĮ": 383,
      "è§": 384,
      "Ġy": 385,
      "åĽ": 386,
      "è¡": 387,
      "ä¸Ń": 388,
      "å¯": 389,
      "as": 390,
      "æķ°": 391,
      "åĩ": 392,
      "ro": 393,
      "è¿Ļ": 394,
      "Ġis": 395,
      "¦Ĥ": 396,
      "æĿ": 397,
      "æľī": 398,
      "Ġn": 399,
      "å¼": 400,
      "Ġyou": 401,
      "æĢ": 402,
      "ä¿": 403,
      "å¦Ĥ": 404,
      "æŀ": 405,
      "Ġl": 406,
      "åĨ": 407,
      "çŃ": 408,
      "çİ": 409,
      "åı¯ä»¥": 410,
      "éĹ": 411,
      "ç§": 412,
      "Ġe": 413,
      "è¦": 414,
      "çĽ": 415,
      "çī": 416,
      "ä¸į": 417,
      "ä¸º": 418,
      "çļĦæ": 419,
      "è¦ģ": 420,
      "çĲ": 421,
      "Ġre": 422,
      "äºĨ": 423,
      "å¹": 424,
      "ent": 425,
      "ct": 426,
      "å·": 427,
      "æı": 428,
      "Ġh": 429,
      "èĢ": 430,
      "é¢": 431,
      "st": 432,
      "æ³": 433,
      "æī": 434,
      "ĊĠĠ": 435,
      "æĬ": 436,
      "ä¾": 437,
      "æł": 438,
      "et": 439,
      "æį": 440,
      "ä½ł": 441,
      "ĠI": 442,
      "æĹ¶": 443,
      "om": 444,
      "Ġth": 445,
      "el": 446,
      "äºº": 447,
      "åį": 448,
      "``": 449,
      "Ġ=": 450,
      "ow": 451,
      "Ġ\\": 452,
      "å½": 453,
      "æıĲ": 454,
      "çĲĨ": 455,
      "äºİ": 456,
      "um": 457,
      "å¾": 458,
      "æĪĸ": 459,
      "id": 460,
      "å¯¹": 461,
      "âĢ": 462,
      "æĪĳ": 463,
      "çŃī": 464,
      "æİ": 465,
      "ä¸Ģä¸ª": 466,
      "im": 467,
      "éĢļ": 468,
      "éĿ": 469,
      "æĢ§": 470,
      "è´": 471,
      "è¿ĩ": 472,
      "ce": 473,
      "è¡Į": 474,
      "ç®": 475,
      "ä½¿": 476,
      "æĮ": 477,
      "ve": 478,
      "æĶ": 479,
      "èĩ": 480,
      "æĭ": 481,
      "Ġ1": 482,
      "Ġu": 483,
      "æĸ¹": 484,
      "il": 485,
      "çĶŁ": 486,
      "æį®": 487,
      "æĪĲ": 488,
      "ation": 489,
      "åŃ¦": 490,
      "æĽ": 491,
      "Ġg": 492,
      "æŃ": 493,
      "åĵ": 494,
      "th": 495,
      "ers": 496,
      "am": 497,
      "ä½ľ": 498,
      "ig": 499,
      "ol": 500,
      "ut": 501,
      "å¿": 502,
      "Ġfor": 503,
      "ä¸ĭ": 504,
      "æĦ": 505,
      "éľ": 506,
      "if": 507,
      "ä¼ļ": 508,
      "æĿ¥": 509,
      "å¥": 510,
      "åĮĸ": 511,
      "åĪ°": 512,
      "åĪĨ": 513,
      "è¾": 514,
      "å®ļ": 515,
      "ä¿Ŀ": 516,
      "æĽ´": 517,
      "äºĽ": 518,
      "ç¡": 519,
      "æµ": 520,
      "éĻ": 521,
      "Ġor": 522,
      "Ġas": 523,
      "éľĢ": 524,
      "å±": 525,
      "ä»¬": 526,
      "ĠT": 527,
      "ç¨": 528,
      "ĠA": 529,
      "ä½ĵ": 530,
      "åĬ¨": 531,
      "åıĳ": 532,
      "ä½¿çĶ¨": 533,
      "è§£": 534,
      "ĠC": 535,
      "Ġ\"": 536,
      "qu": 537,
      "è¿Ľ": 538,
      "æŀľ": 539,
      "Ġpro": 540,
      "Ġcan": 541,
      "ly": 542,
      "ur": 543,
      "éĺ": 544,
      "åºĶ": 545,
      "Ġ2": 546,
      "åĳ": 547,
      "Ġ-": 548,
      "ul": 549,
      "ch": 550,
      "åŁ": 551,
      "ä¸İ": 552,
      "åľ°": 553,
      "ï¼ī": 554,
      "ï¼Ī": 555,
      "æ³ķ": 556,
      "ate": 557,
      "èµ": 558,
      "ra": 559,
      "åĲĮ": 560,
      "é«": 561,
      "ä¸Ĭ": 562,
      "Ġit": 563,
      "é«ĺ": 564,
      "å¤§": 565,
      "ç½": 566,
      "ç¡®": 567,
      "ith": 568,
      "æķ°æį®": 569,
      "ist": 570,
      "åĲĪ": 571,
      "ab": 572,
      "se": 573,
      "æĸĩ": 574,
      "è½": 575,
      "æ¯": 576,
      "åº¦": 577,
      "åı¯èĥ½": 578,
      "èĩª": 579,
      "Ġst": 580,
      "å®ŀ": 581,
      "Ġhe": 582,
      "ge": 583,
      "éĩı": 584,
      "è®¡": 585,
      "ç¨ĭ": 586,
      "çº": 587,
      "åİ": 588,
      "æ°": 589,
      "å¤ļ": 590,
      "Ġthat": 591,
      "æĥ": 592,
      "ot": 593,
      "åĬĽ": 594,
      "åĬł": 595,
      "çİ°": 596,
      "åĩº": 597,
      "ç¤": 598,
      "Ġwith": 599,
      "Ġbe": 600,
      "ç³": 601,
      "ä¸ļ": 602,
      "Ġv": 603,
      "ç§į": 604,
      "éĿ¢": 605,
      "å¸¸": 606,
      "éĹ´": 607,
      "åĬ¡": 608,
      "è®¾": 609,
      "æĬĢ": 610,
      "est": 611,
      "å»": 612,
      "ä¾Ľ": 613,
      "Ġcon": 614,
      "éĹ®": 615,
      "åĬ©": 616,
      "æľ¯": 617,
      "æ´": 618,
      "Ġon": 619,
      "æ±": 620,
      "Ġmo": 621,
      "æĻ": 622,
      "å°Ĩ": 623,
      "```": 624,
      "å¢": 625,
      "è¡¨": 626,
      "éģ": 627,
      "'s": 628,
      "åħ³": 629,
      "éľĢè¦ģ": 630,
      "ĠS": 631,
      "é¢ĺ": 632,
      "å·¥": 633,
      "##": 634,
      "å»º": 635,
      "åħ¶": 636,
      "éĩį": 637,
      "æľº": 638,
      "ir": 639,
      "æĸ°": 640,
      "çī©": 641,
      "éĢļè¿ĩ": 642,
      "åħ¨": 643,
      "æıĲä¾Ľ": 644,
      "ä¿¡": 645,
      "çĦ": 646,
      "ç³»": 647,
      "æĮģ": 648,
      "çł": 649,
      "å¼ı": 650,
      "un": 651,
      "ver": 652,
      "pe": 653,
      "Ġwh": 654,
      "ay": 655,
      "ç´": 656,
      "æģ": 657,
      "å¥½": 658,
      "åĢ": 659,
      "ç«": 660,
      "å¦Ĥæŀľ": 661,
      "èī": 662,
      "åŃĲ": 663,
      "æ¸": 664,
      "Ġ(": 665,
      "ĠH": 666,
      "çĦ¶": 667,
      "iv": 668,
      "åģ": 669,
      "00": 670,
      "åħ·": 671,
      "ç±": 672,
      "Ł¥": 673,
      "ld": 674,
      "çĤ": 675,
      "ib": 676,
      "è°": 677,
      "ä»ĸ": 678,
      "é¡": 679,
      "ç®Ĺ": 680,
      "ãģ": 681,
      "åĪ¶": 682,
      "âĢľ": 683,
      "âĢĿ": 684,
      "ä¹ł": 685,
      "åŀ": 686,
      "em": 687,
      "ide": 688,
      "æľ¬": 689,
      "æĪ·": 690,
      "ĠP": 691,
      "è¶": 692,
      "ke": 693,
      "nt": 694,
      "æľĢ": 695,
      "åĮħ": 696,
      "å®ĥ": 697,
      "çī¹": 698,
      "Ġcom": 699,
      "å°ı": 700,
      "åĲİ": 701,
      "åŃĹ": 702,
      "å¸®": 703,
      "èĢĮ": 704,
      "æķĪ": 705,
      "èĢħ": 706,
      "Ġ3": 707,
      "igh": 708,
      "é£": 709,
      "åĵģ": 710,
      "ä»£": 711,
      "ä»¶": 712,
      "de": 713,
      "umb": 714,
      "yth": 715,
      "éļ": 716,
      "åħ¥": 717,
      "Ĥ¨": 718,
      "Ġex": 719,
      "ä¹Ł": 720,
      "æ²": 721,
      "lo": 722,
      "çĽ®": 723,
      "åŀĭ": 724,
      "ĊĠĠĠ": 725,
      "å®¶": 726,
      "å¼Ģ": 727,
      "and": 728,
      "¨¡": 729,
      "Ġne": 730,
      "åĽł": 731,
      "Ġare": 732,
      "æĦı": 733,
      "æ¬": 734,
      "çļĦç": 735,
      "Ġha": 736,
      "pp": 737,
      "åī": 738,
      "å¸®åĬ©": 739,
      "ain": 740,
      "te": 741,
      "æĬĢæľ¯": 742,
      "å®ī": 743,
      "ython": 744,
      "ure": 745,
      "éĹ®é¢ĺ": 746,
      "å±ķ": 747,
      "ĠĠĠĠ": 748,
      "çĤ¹": 749,
      "The": 750,
      "éĶ": 751,
      "ä¾ĭ": 752,
      "çĿ": 753,
      "Ġ+": 754,
      "æģ¯": 755,
      "æľį": 756,
      "Ġr": 757,
      "éĢī": 758,
      "æ¨¡": 759,
      "ä½Ĩ": 760,
      "è¯Ń": 761,
      "Ġse": 762,
      "åĽ½": 763,
      "åĨħ": 764,
      "Ġme": 765,
      "åĪĽ": 766,
      "ç»Ł": 767,
      "åŃ¦ä¹ł": 768,
      "Ġby": 769,
      "éķ": 770,
      "her": 771,
      "èĤ": 772,
      "æĪĳä»¬": 773,
      "ight": 774,
      "ä¹ĭ": 775,
      "ï¼Ł": 776,
      "æĦŁ": 777,
      "ç±»": 778,
      "æ±Ĥ": 779,
      "æ´»": 780,
      "ess": 781,
      "è¿ĻäºĽ": 782,
      "éª": 783,
      "éĽ": 784,
      "ad": 785,
      "åħ¬": 786,
      "Ġde": 787,
      "for": 788,
      "Ġal": 789,
      "äº§": 790,
      "ment": 791,
      "ç¼": 792,
      "ç½ĳ": 793,
      "ĠThe": 794,
      "å¿ĥ": 795,
      "Ġwe": 796,
      "å¹¶": 797,
      "ç¬": 798,
      "æīĢ": 799,
      "çĽ¸": 800,
      "Ġ\\(": 801,
      "çķ": 802,
      "åĻ": 803,
      "åĿ": 804,
      "æľŁ": 805,
      "int": 806,
      "æ·": 807,
      "Ġ`": 808,
      "ri": 809,
      "nd": 810,
      "ant": 811,
      "ase": 812,
      "ç»ı": 813,
      "çİ¯": 814,
      "è¿Ľè¡Į": 815,
      "ç»ĵ": 816,
      "èĬ": 817,
      "å¹³": 818,
      "çĶµ": 819,
      "ç©": 820,
      "Ġnumb": 821,
      "éĢĤ": 822,
      "lp": 823,
      "oo": 824,
      "ction": 825,
      "äº¤": 826,
      "åĻ¨": 827,
      "åıĺ": 828,
      "æłĩ": 829,
      "ä¸»": 830,
      "æº": 831,
      "us": 832,
      "ple": 833,
      "age": 834,
      "å¤Ħ": 835,
      "çĿĢ": 836,
      "æľįåĬ¡": 837,
      "éĥ": 838,
      "ä¿¡æģ¯": 839,
      "xt": 840,
      "Ġprov": 841,
      "æİ¥": 842,
      "Ġhelp": 843,
      "èµĦ": 844,
      "åĨ³": 845,
      "Ġus": 846,
      "å½±": 847,
      "Ġle": 848,
      "æĤ¨": 849,
      "ä»¥ä¸ĭ": 850,
      "æĺİ": 851,
      "éĩĮ": 852,
      "çľ": 853,
      "è·": 854,
      "Ġsu": 855,
      "æĥħ": 856,
      "éĥ½": 857,
      "åľº": 858,
      "ç¡®ä¿Ŀ": 859,
      "ä»İ": 860,
      "éķ¿": 861,
      "Wh": 862,
      "çĶ¨æĪ·": 863,
      "éĥ¨": 864,
      "rom": 865,
      "ort": 866,
      "åıĬ": 867,
      "èģ": 868,
      "ĠM": 869,
      "ity": 870,
      "å¤Ł": 871,
      "åĪĹ": 872,
      "å¾Ĺ": 873,
      "Ġhave": 874,
      "pt": 875,
      "form": 876,
      "åŁº": 877,
      "å®īåħ¨": 878,
      "åĢ¼": 879,
      "è°ĥ": 880,
      "æĭ¬": 881,
      "èĻ": 882,
      "ific": 883,
      "ive": 884,
      "ç¤¾": 885,
      "çłģ": 886,
      "ter": 887,
      "ä½ķ": 888,
      "res": 889,
      "Ġch": 890,
      "éĢīæĭ": 891,
      "ck": 892,
      "Ġqu": 893,
      "éĢīæĭ©": 894,
      "è®¡ç®Ĺ": 895,
      "é¦": 896,
      "æºĲ": 897,
      "åĮħæĭ¬": 898,
      "å½ĵ": 899,
      "Ġ5": 900,
      "end": 901,
      "ç®¡": 902,
      "çİĩ": 903,
      "è¿Ļä¸ª": 904,
      "æıĲé«ĺ": 905,
      "ame": 906,
      "ç³»ç»Ł": 907,
      "åºĶçĶ¨": 908,
      "è¿ĺ": 909,
      "æķ´": 910,
      "æĹ¶éĹ´": 911,
      "è®®": 912,
      "art": 913,
      "Ġk": 914,
      "ould": 915,
      "ind": 916,
      "ä½į": 917,
      "ä»»": 918,
      "æ¯ı": 919,
      "è´¨": 920,
      "åĵį": 921,
      "ue": 922,
      "ä¸ĢäºĽ": 923,
      "å¤į": 924,
      "ies": 925,
      "ial": 926,
      "Ġpo": 927,
      "äºĭ": 928,
      "å¸Ĥ": 929,
      "èī²": 930,
      "åŃĺ": 931,
      "Ġ4": 932,
      "åĮº": 933,
      "èĥ½å¤Ł": 934,
      "ç¤º": 935,
      "å¹´": 936,
      "è¢": 937,
      "åīį": 938,
      "åĲį": 939,
      "ç´ł": 940,
      "ç»Ħ": 941,
      "ang": 942,
      "æ¡": 943,
      "ence": 944,
      "ĠF": 945,
      "Ġspe": 946,
      "Ġwor": 947,
      "ich": 948,
      "æ¶": 949,
      "éħ": 950,
      "å¢ŀ": 951,
      "æ°´": 952,
      "æŃ¥": 953,
      "å¢ĥ": 954,
      "out": 955,
      "æŀĦ": 956,
      "ĠE": 957,
      "å¤ĦçĲĨ": 958,
      "ill": 959,
      "è¯·": 960,
      "Ġfrom": 961,
      "å°ĳ": 962,
      "éĩįè¦ģ": 963,
      "ere": 964,
      "é¡¹": 965,
      "Ġco": 966,
      "æ¯Ķ": 967,
      "æŃ£": 968,
      "ä¸įåĲĮ": 969,
      "åĩ½": 970,
      "åĪ©": 971,
      "éĤ": 972,
      "è¢«": 973,
      "åĩĨ": 974,
      "Ġab": 975,
      "æĶ¯": 976,
      "ä»ħ": 977,
      "ĠB": 978,
      "æł¹": 979,
      "è¯Ĩ": 980,
      "ä¹Ī": 981,
      "å¯¼": 982,
      "åħĥ": 983,
      "åĩ½æķ°": 984,
      "ä¼ĺ": 985,
      "\\)": 986,
      "ions": 987,
      "Ġ$": 988,
      "æĹł": 989,
      "æ³¨": 990,
      "éĿŀ": 991,
      "pl": 992,
      "å¤©": 993,
      "æŁ¥": 994,
      "æĬ¤": 995,
      "æµģ": 996,
      "æµĭ": 997,
      "è§Ħ": 998,
      "his": 999,
      "çĸ": 1000,
      "æĺ¯ä¸Ģä¸ª": 1001,
      "ĠAl": 1002,
      "Ġthis": 1003,
      "ĠW": 1004,
      "ult": 1005,
      "åºı": 1006,
      "çº¿": 1007,
      "è¯ķ": 1008,
      "åıĳå±ķ": 1009,
      "å½±åĵį": 1010,
      "###": 1011,
      "ç¾": 1012,
      "ç½®": 1013,
      "åŁŁ": 1014,
      "åıĸ": 1015,
      "ine": 1016,
      "Ġprovide": 1017,
      "é£İ": 1018,
      "å½¢": 1019,
      "Ġspec": 1020,
      "ä¼ł": 1021,
      "å¤ĩ": 1022,
      "å¼º": 1023,
      "ike": 1024,
      "act": 1025,
      "åħ·ä½ĵ": 1026,
      "Ġnot": 1027,
      "iz": 1028,
      "å®¹": 1029,
      "low": 1030,
      "Ġass": 1031,
      "é¢Ĩ": 1032,
      "éªĮ": 1033,
      "Ġma": 1034,
      "åĩı": 1035,
      "Ġmore": 1036,
      "åķ": 1037,
      "ç®¡çĲĨ": 1038,
      "Ġyour": 1039,
      "æĢģ": 1040,
      "Ġdo": 1041,
      "ä¸ŃçļĦ": 1042,
      "æ»": 1043,
      "ĠG": 1044,
      "Ġwhich": 1045,
      "æŀĲ": 1046,
      "Ġte": 1047,
      "Ġnumber": 1048,
      "able": 1049,
      "è¿°": 1050,
      "aba": 1051,
      "è¾ĵ": 1052,
      "æĹ¥": 1053,
      "æł¹æį®": 1054,
      "åĽŀ": 1055,
      "çŃĸ": 1056,
      "Ġen": 1057,
      "ĠD": 1058,
      "éĵ": 1059,
      "Ġpr": 1060,
      "è¨": 1061,
      "çİ¯å¢ĥ": 1062,
      "ibaba": 1063,
      "æĸ¹æ³ķ": 1064,
      "åĪ«": 1065,
      "åįķ": 1066,
      "per": 1067,
      "rou": 1068,
      "Ł³": 1069,
      "Ġneed": 1070,
      "è¿Ĳ": 1071,
      "ring": 1072,
      "æł¼": 1073,
      "put": 1074,
      "ä¸įä»ħ": 1075,
      "ust": 1076,
      "æ£": 1077,
      "ite": 1078,
      "ance": 1079,
      "æĻº": 1080,
      "éĽĨ": 1081,
      "åıĹ": 1082,
      "æŃ¤": 1083,
      "our": 1084,
      "å¤ĸ": 1085,
      "ä»£çłģ": 1086,
      "ç§ĳ": 1087,
      "åĲĳ": 1088,
      "èĬĤ": 1089,
      "éĢļå¸¸": 1090,
      "è®¾è®¡": 1091,
      "å§": 1092,
      "are": 1093,
      "æ·±": 1094,
      "ated": 1095,
      "ical": 1096,
      "æŁ": 1097,
      "Ġlike": 1098,
      "oud": 1099,
      "é¢Ħ": 1100,
      "éĢŁ": 1101,
      "èĢĥ": 1102,
      "now": 1103,
      "è¨Ģ": 1104,
      "åĪĨæŀĲ": 1105,
      "ans": 1106,
      "åĽ¾": 1107,
      "ĊĠĠĠĠĠĠ": 1108,
      "ä¸ªäºº": 1109,
      "cl": 1110,
      "Ġwas": 1111,
      "åĬŁ": 1112,
      "av": 1113,
      "ĠHow": 1114,
      "çŁ¥": 1115,
      "ç»Ļ": 1116,
      "æĮĩ": 1117,
      "åĳĺ": 1118,
      "æ®": 1119,
      "åıĤ": 1120,
      "ç»Ń": 1121,
      "Ġso": 1122,
      "loud": 1123,
      "ä¾ĭå¦Ĥ": 1124,
      "æĥ³": 1125,
      "ice": 1126,
      "åĲĮæĹ¶": 1127,
      "Ġsh": 1128,
      "æł·": 1129,
      "cc": 1130,
      "ud": 1131,
      "è®º": 1132,
      "åıį": 1133,
      "çģ": 1134,
      "æ¨¡åŀĭ": 1135,
      "ä¹ī": 1136,
      "è¾¾": 1137,
      "äºĳ": 1138,
      "çĽ´": 1139,
      "çĥ": 1140,
      "ĠAlibaba": 1141,
      "èĥ": 1142,
      "çĲĥ": 1143,
      "Ġtr": 1144,
      "å·±": 1145,
      "What": 1146,
      "æķĻ": 1147,
      "unction": 1148,
      "Ġany": 1149,
      "åĨµ": 1150,
      "æīĭ": 1151,
      "Ġassist": 1152,
      "èĩªå·±": 1153,
      "ast": 1154,
      "\\[": 1155,
      "ary": 1156,
      "åĽ¢": 1157,
      "å·´": 1158,
      "å·¥ä½ľ": 1159,
      "ç¬¦": 1160,
      "å»ºè®®": 1161,
      "è±": 1162,
      "ag": 1163,
      "éĻħ": 1164,
      "Ġint": 1165,
      "èį": 1166,
      "æ¬¡": 1167,
      "æĶ¹": 1168,
      "ãĤ": 1169,
      "æī¾": 1170,
      "ç¥": 1171,
      "og": 1172,
      "åħ±": 1173,
      "ime": 1174,
      "ap": 1175,
      "formation": 1176,
      "Ġ0": 1177,
      "Ġres": 1178,
      "åģ¥": 1179,
      "ä»·": 1180,
      "ä¸¤": 1181,
      "æĻ¯": 1182,
      "è¿ĩç¨ĭ": 1183,
      "åİŁ": 1184,
      "å¦Ĥä½ķ": 1185,
      "è§Ĥ": 1186,
      "ther": 1187,
      "æĸ¹å¼ı": 1188,
      "èĲ": 1189,
      "Ġ20": 1190,
      "ç«ĭ": 1191,
      "è½¬": 1192,
      "Ġ'": 1193,
      "å¼ķ": 1194,
      "æ°Ķ": 1195,
      "Ġabout": 1196,
      "Ġspecific": 1197,
      "ĠL": 1198,
      "å®ŀçİ°": 1199,
      "Ġad": 1200,
      "çĲĨè§£": 1201,
      "è®©": 1202,
      "æĺ¯ä¸Ģ": 1203,
      "æľª": 1204,
      "çĶ¨äºİ": 1205,
      "ç¼ĸ": 1206,
      "lease": 1207,
      "Ġim": 1208,
      "é¢ĨåŁŁ": 1209,
      "æİ¨": 1210,
      "éĺ¿": 1211,
      "Ġknow": 1212,
      "è§Ĩ": 1213,
      "ä½łçļĦ": 1214,
      "è§£åĨ³": 1215,
      "ç»ľ": 1216,
      "Ġinformation": 1217,
      "10": 1218,
      "Ġpl": 1219,
      "åĩıå°ĳ": 1220,
      "åħī": 1221,
      "å®Į": 1222,
      "text": 1223,
      "åħĪ": 1224,
      "Ġar": 1225,
      "åĨĻ": 1226,
      "éļı": 1227,
      "æĶ¶": 1228,
      "ç½ĳç»ľ": 1229,
      "æĻºèĥ½": 1230,
      "ĠN": 1231,
      "éĺŁ": 1232,
      "å®¢": 1233,
      "èµ·": 1234,
      "Ġfunction": 1235,
      "ĠJ": 1236,
      "king": 1237,
      "éĤ£": 1238,
      "ore": 1239,
      "çĶ±": 1240,
      "Ġif": 1241,
      "ations": 1242,
      "ĠR": 1243,
      "åº·": 1244,
      "åĪĻ": 1245,
      "ĠCh": 1246,
      "éľĢæ±Ĥ": 1247,
      "Ġat": 1248,
      "åħį": 1249,
      "ener": 1250,
      "æĶ¾": 1251,
      "æĶ¯æĮģ": 1252,
      "Ġup": 1253,
      "ç²": 1254,
      "æľĽ": 1255,
      "ä¸ĵ": 1256,
      "è¯´": 1257,
      "ä¿ĿæĮģ": 1258,
      "ount": 1259,
      "çĬ": 1260,
      "åİĨ": 1261,
      "urn": 1262,
      "Ġwhe": 1263,
      "ĠThis": 1264,
      "éĩĳ": 1265,
      "all": 1266,
      "éģĵ": 1267,
      "ach": 1268,
      "so": 1269,
      "Ġfe": 1270,
      "éŁ³": 1271,
      "ell": 1272,
      "ç©º": 1273,
      "çłĶ": 1274,
      "ks": 1275,
      "åķĨ": 1276,
      "åį³": 1277,
      "è§Ĵ": 1278,
      "ç¾İ": 1279,
      "åģ¥åº·": 1280,
      "ç¤¾ä¼ļ": 1281,
      "è¯Ńè¨Ģ": 1282,
      "tain": 1283,
      "å£": 1284,
      "ange": 1285,
      "èº": 1286,
      "ata": 1287,
      "èĦ": 1288,
      "ign": 1289,
      "Ġhas": 1290,
      "è®°": 1291,
      "ect": 1292,
      "ä¹Ĳ": 1293,
      "èİ": 1294,
      "çĹ": 1295,
      "èº«": 1296,
      "Ġret": 1297,
      "çĶŁæ´»": 1298,
      "ile": 1299,
      "æİ§": 1300,
      "ous": 1301,
      "ç»´": 1302,
      "éĴ": 1303,
      "å§ĭ": 1304,
      "éĺ¿éĩĮ": 1305,
      "äº§åĵģ": 1306,
      "éĿŀå¸¸": 1307,
      "è£": 1308,
      "erm": 1309,
      "åĸ": 1310,
      "ç®Ģ": 1311,
      "os": 1312,
      "ĠIf": 1313,
      "å¸Ĥåľº": 1314,
      "Ġj": 1315,
      "å¿«": 1316,
      "æ®µ": 1317,
      "od": 1318,
      "Ġser": 1319,
      "pr": 1320,
      "äºĨè§£": 1321,
      "Ġ6": 1322,
      "åįĩ": 1323,
      "å°±": 1324,
      "èµĦæºĲ": 1325,
      "èĩ´": 1326,
      "çĽ®æłĩ": 1327,
      "åı°": 1328,
      "rac": 1329,
      "è±¡": 1330,
      "ä¸»è¦ģ": 1331,
      "åĲ¦": 1332,
      "æĸĻ": 1333,
      "èĥ½åĬĽ": 1334,
      "æĸŃ": 1335,
      "çľĭ": 1336,
      "à¸": 1337,
      "Ġcre": 1338,
      "AI": 1339,
      "du": 1340,
      "æ£Ģ": 1341,
      "Ġits": 1342,
      "ĠIt": 1343,
      "ä»¥åıĬ": 1344,
      "è¯ģ": 1345,
      "ä»ĸä»¬": 1346,
      "ĠCloud": 1347,
      "ail": 1348,
      "python": 1349,
      "å¯¹äºİ": 1350,
      "éĻĲ": 1351,
      "ub": 1352,
      "ä¼ģ": 1353,
      "20": 1354,
      "åı¸": 1355,
      "æ¸¸": 1356,
      "æĵ": 1357,
      "é£Ł": 1358,
      "æ»¡": 1359,
      "æĸĩåĮĸ": 1360,
      "()": 1361,
      "Ġbut": 1362,
      "ç»Ĩ": 1363,
      "ï¼ģ": 1364,
      "å¸Į": 1365,
      "Ġmy": 1366,
      "ip": 1367,
      "ä¼ģä¸ļ": 1368,
      "èģĶ": 1369,
      "ĠO": 1370,
      "é¡¹çĽ®": 1371,
      "æķ°åŃĹ": 1372,
      "çķĮ": 1373,
      "éģ¿": 1374,
      "åĩł": 1375,
      "}{": 1376,
      "ong": 1377,
      "ä¿ĿæĬ¤": 1378,
      "æĪĺ": 1379,
      "è¯Ħ": 1380,
      "ä»Ģ": 1381,
      "ree": 1382,
      "æĢ»": 1383,
      "ç§¯": 1384,
      "è¯¥": 1385,
      "éħį": 1386,
      "ĊĠĠĠĠĠĠĠ": 1387,
      "ass": 1388,
      "ever": 1389,
      "Ġx": 1390,
      "ces": 1391,
      "æĽ´åĬł": 1392,
      "Ġquest": 1393,
      "éĢł": 1394,
      "Ġgener": 1395,
      "æĿ¡": 1396,
      "frac": 1397,
      "Ġreturn": 1398,
      "èĮ": 1399,
      "ie": 1400,
      "Ġ\\)": 1401,
      "çĬ¶": 1402,
      "ä»Ģä¹Ī": 1403,
      "æ¡Ī": 1404,
      "ä¸ŃåĽ½": 1405,
      "Ġun": 1406,
      "åĲ«": 1407,
      "é¦ĸ": 1408,
      "å¹¿": 1409,
      "æĺĵ": 1410,
      "ä¹ĭéĹ´": 1411,
      "åĽ¢éĺŁ": 1412,
      "èĪ": 1413,
      "Ġhow": 1414,
      "vel": 1415,
      "Ġsc": 1416,
      "Ġfind": 1417,
      "Ġuse": 1418,
      "é©": 1419,
      "æ²¡": 1420,
      "Ġ10": 1421,
      "'m": 1422,
      "å¯Ĩ": 1423,
      "çĶŁæĪĲ": 1424,
      "èĻĳ": 1425,
      "port": 1426,
      "oc": 1427,
      "'re": 1428,
      "åħ¬åı¸": 1429,
      "åĬŁèĥ½": 1430,
      "æķħ": 1431,
      "Ġincl": 1432,
      "ard": 1433,
      "ates": 1434,
      "èĤ²": 1435,
      "åħĥç´ł": 1436,
      "éĻ©": 1437,
      "Ġval": 1438,
      "åĮ»": 1439,
      "æķĪçİĩ": 1440,
      "ä¸ī": 1441,
      "èĩªçĦ¶": 1442,
      "com": 1443,
      "æĢ§åĴĮ": 1444,
      "'t": 1445,
      "æį¢": 1446,
      "æ¸ħ": 1447,
      "Ġapp": 1448,
      "ç´¢": 1449,
      "éģ¿åħį": 1450,
      "æĿĤ": 1451,
      "Ġ[": 1452,
      "Ġdes": 1453,
      "æĿĥ": 1454,
      "å®ĥä»¬": 1455,
      "è¶³": 1456,
      "åĨħå®¹": 1457,
      "èĭ": 1458,
      "Ġlist": 1459,
      "åĲĦ": 1460,
      "æĺ¯åĲ¦": 1461,
      "æĸ¹éĿ¢": 1462,
      "Ġequ": 1463,
      "æ²¡æľī": 1464,
      "ĠChin": 1465,
      "çĭ": 1466,
      "æİĴ": 1467,
      "åĪĴ": 1468,
      "çĻ": 1469,
      "æīĢæľī": 1470,
      "è®¤": 1471,
      "éĶ®": 1472,
      "äºĴ": 1473,
      "è¯į": 1474,
      "ire": 1475,
      "åĳ³": 1476,
      "æĸ½": 1477,
      "è®Ń": 1478,
      "æľīæķĪ": 1479,
      "é¥": 1480,
      "Ġfol": 1481,
      "ari": 1482,
      "å¸¦": 1483,
      "æ´»åĬ¨": 1484,
      "è´¹": 1485,
      "In": 1486,
      "æŀģ": 1487,
      "ä½İ": 1488,
      "ace": 1489,
      "ely": 1490,
      "Ġcode": 1491,
      "åħ¶ä»ĸ": 1492,
      "irst": 1493,
      "Ġwill": 1494,
      "ä¼ĺåĮĸ": 1495,
      "ç»ĥ": 1496,
      "å¼Ģåıĳ": 1497,
      "è½¦": 1498,
      "äº«": 1499,
      "Ġmost": 1500,
      "Ġsom": 1501,
      "Ġfollow": 1502,
      "Ġdet": 1503,
      "çĪ": 1504,
      "å¤įæĿĤ": 1505,
      "op": 1506,
      "åºĵ": 1507,
      "Ġform": 1508,
      "ä¹¦": 1509,
      "æĢĿ": 1510,
      "ç©¶": 1511,
      "iven": 1512,
      "å¸ĮæľĽ": 1513,
      "åĪĹè¡¨": 1514,
      "Ġcomm": 1515,
      "è¿Ļç§į": 1516,
      "åĿĹ": 1517,
      "gh": 1518,
      "è½»": 1519,
      "åŃĹç¬¦": 1520,
      "çķ¥": 1521,
      "ep": 1522,
      "Ġacc": 1523,
      "ĠHowever": 1524,
      "ally": 1525,
      "è¾ĥ": 1526,
      "åĳ½": 1527,
      "åĽłä¸º": 1528,
      "è¶£": 1529,
      "ç¦": 1530,
      "èĢĥèĻĳ": 1531,
      "è¯Ŀ": 1532,
      "ord": 1533,
      "Ġmod": 1534,
      "ĠU": 1535,
      "Ġcomp": 1536,
      "ãĥ": 1537,
      "Ġ7": 1538,
      "èİ·": 1539,
      "åĥ": 1540,
      "å¢ŀåĬł": 1541,
      "įä½ľ": 1542,
      "ĠPython": 1543,
      "è·¯": 1544,
      "ac": 1545,
      "åĳĬ": 1546,
      "åıª": 1547,
      "ä»¥ä¸ĭæĺ¯": 1548,
      "ä½łåı¯ä»¥": 1549,
      "çłĶç©¶": 1550,
      "è°ĥæķ´": 1551,
      "Ġro": 1552,
      "Ġdata": 1553,
      "çĸĹ": 1554,
      "è¯»": 1555,
      "å¾ĭ": 1556,
      "ry": 1557,
      "è§ģ": 1558,
      "print": 1559,
      "è£ħ": 1560,
      "ample": 1561,
      "\\]": 1562,
      "Ġsent": 1563,
      "Ġmight": 1564,
      "ä¿ĥ": 1565,
      "çīĩ": 1566,
      "ħ§": 1567,
      "Ġ\\]": 1568,
      "æĮģç»Ń": 1569,
      ".\"": 1570,
      "åı¯èĥ½ä¼ļ": 1571,
      "åı£": 1572,
      "å¸ĥ": 1573,
      "å¾Ī": 1574,
      "åı·": 1575,
      "éĵ¾": 1576,
      "ello": 1577,
      "çī¹å®ļ": 1578,
      "æĸĩä»¶": 1579,
      "--": 1580,
      "èĩ³": 1581,
      "ãĢĬ": 1582,
      "æĪı": 1583,
      "ãĢĭ": 1584,
      "urre": 1585,
      "åĥı": 1586,
      "ems": 1587,
      "åħ´": 1588,
      "ä¸ĸ": 1589,
      "è´¨éĩı": 1590,
      "æ¼": 1591,
      "ress": 1592,
      "éĻ¤": 1593,
      "æĥħåĨµ": 1594,
      "Ġ{": 1595,
      "Ġ8": 1596,
      "çĦ¶åĲİ": 1597,
      "å¦Ĥæŀľä½ł": 1598,
      "åı¥": 1599,
      "Python": 1600,
      "ph": 1601,
      "Hello": 1602,
      "æŁĲ": 1603,
      "å¹³åı°": 1604,
      "æĶ¿": 1605,
      "ertain": 1606,
      "å½ķ": 1607,
      "imes": 1608,
      "Ġpart": 1609,
      "ound": 1610,
      "wen": 1611,
      "Ġnumbers": 1612,
      "Ġper": 1613,
      "åĪĽå»º": 1614,
      "sw": 1615,
      "åıĺåĮĸ": 1616,
      "fere": 1617,
      "å·¥åħ·": 1618,
      "Ġnew": 1619,
      "éĺ²": 1620,
      "Ġwhat": 1621,
      "angu": 1622,
      "Ġone": 1623,
      "æķĻèĤ²": 1624,
      "Ġserv": 1625,
      "Ġname": 1626,
      "ff": 1627,
      "Ġ#": 1628,
      "ç®Ĺæ³ķ": 1629,
      "è¯¯": 1630,
      "åħħ": 1631,
      "ition": 1632,
      "con": 1633,
      "one": 1634,
      "Ġtheir": 1635,
      "å®ŀéĻħ": 1636,
      "ack": 1637,
      "ft": 1638,
      "é»": 1639,
      "ram": 1640,
      "åĪ©çĶ¨": 1641,
      "æīĵ": 1642,
      "æĵįä½ľ": 1643,
      "Ġsol": 1644,
      "æ¶Ī": 1645,
      "ç§°": 1646,
      "):": 1647,
      "æĪĸèĢħ": 1648,
      "Ġother": 1649,
      "Ġall": 1650,
      "Ġusing": 1651,
      "ript": 1652,
      "Qwen": 1653,
      "çļĦæĺ¯": 1654,
      "ear": 1655,
      "ç»ĵæŀľ": 1656,
      "ä¿ĥè¿Ľ": 1657,
      "Ġcl": 1658,
      "æľªæĿ¥": 1659,
      "ak": 1660,
      "æİ§åĪ¶": 1661,
      "ory": 1662,
      "çŁ": 1663,
      "Ġlangu": 1664,
      "Ġsy": 1665,
      "åĽłæŃ¤": 1666,
      "éĢĤåĲĪ": 1667,
      "vers": 1668,
      "Ġinto": 1669,
      "Ġinte": 1670,
      "To": 1671,
      "Ġman": 1672,
      "æ¸©": 1673,
      "å¥½çļĦ": 1674,
      "æľīåĬ©": 1675,
      "23": 1676,
      "ç»ĵæŀĦ": 1677,
      "æĿĲ": 1678,
      "èĲ¥": 1679,
      "Ġvari": 1680,
      "æľīåĬ©äºİ": 1681,
      "Ġem": 1682,
      "Ġcol": 1683,
      "Ġcont": 1684,
      "ng": 1685,
      "ç«Ļ": 1686,
      "æĸ°çļĦ": 1687,
      "æıı": 1688,
      "ish": 1689,
      "Ġoff": 1690,
      "è¯¢": 1691,
      "åİ»": 1692,
      "çĽ¸åħ³": 1693,
      "æĺ¾": 1694,
      "Ġout": 1695,
      "ased": 1696,
      "èŀ": 1697,
      "rite": 1698,
      "æµİ": 1699,
      "æĺŁ": 1700,
      "Ġbet": 1701,
      "æķħäºĭ": 1702,
      "åı²": 1703,
      "Ġansw": 1704,
      "ä¸ºäºĨ": 1705,
      "èĩªå·±çļĦ": 1706,
      "Ġworld": 1707,
      "è®¾å¤ĩ": 1708,
      "Ġwould": 1709,
      "Ġfirst": 1710,
      "æĬķ": 1711,
      "ç¬¬": 1712,
      "Ġev": 1713,
      "åģļ": 1714,
      "æ£ĢæŁ¥": 1715,
      "ç»ıæµİ": 1716,
      "Ġty": 1717,
      "ä¸ĵä¸ļ": 1718,
      "åĶ": 1719,
      "å¸®åĬ©ä½ł": 1720,
      "ĠÐ": 1721,
      "è½¯": 1722,
      "çĽ´æİ¥": 1723,
      "èĳ": 1724,
      "å¼Ģå§ĭ": 1725,
      "ia": 1726,
      "Ġinclud": 1727,
      "æľĪ": 1728,
      "ç²¾": 1729,
      "åĽ´": 1730,
      "ments": 1731,
      "ature": 1732,
      "éĩĬ": 1733,
      "Ġterm": 1734,
      "åĤ¨": 1735,
      "urrent": 1736,
      "ru": 1737,
      "__": 1738,
      "ç±»åŀĭ": 1739,
      "ä»»åĬ¡": 1740,
      "Ġ*": 1741,
      "åĵª": 1742,
      "Ġcal": 1743,
      "Ġalso": 1744,
      "éĶĻ": 1745,
      "Ġam": 1746,
      "we": 1747,
      "ä½ľä¸º": 1748,
      "Ġanswer": 1749,
      "å¿µ": 1750,
      "æ¸¸æĪı": 1751,
      "æľºåĻ¨": 1752,
      "day": 1753,
      "Ġlet": 1754,
      "Ġused": 1755,
      "çĹħ": 1756,
      "åĲ¸": 1757,
      "ä¸¤ä¸ª": 1758,
      "æī¾åĪ°": 1759,
      "çº§": 1760,
      "Ġsum": 1761,
      "åħ³ç³»": 1762,
      "ne": 1763,
      "æ³¨æĦı": 1764,
      "Ġplease": 1765,
      "Ġeach": 1766,
      "çļĦæĥ": 1767,
      "å¯¼èĩ´": 1768,
      "é¢ĳ": 1769,
      "ç¥ŀ": 1770,
      "å¤ļä¸ª": 1771,
      "Ġsp": 1772,
      "ä¾¿": 1773,
      "èŀį": 1774,
      "Ġexp": 1775,
      "è¾ĵåħ¥": 1776,
      "åŁİ": 1777,
      "è¿ŀ": 1778,
      "æıĲåįĩ": 1779,
      "ten": 1780,
      "åİĭ": 1781,
      "eth": 1782,
      "åħ³éĶ®": 1783,
      "éĥ¨åĪĨ": 1784,
      "çŃĸçķ¥": 1785,
      "Ġref": 1786,
      "cul": 1787,
      "å±Ĥ": 1788,
      "æ¢": 1789,
      "Ġsentence": 1790,
      "çĮ": 1791,
      "è®¸": 1792,
      "éĩĩ": 1793,
      "éª¤": 1794,
      "ning": 1795,
      "ä½ĵéªĮ": 1796,
      "è¿ľ": 1797,
      "ify": 1798,
      "ertainly": 1799,
      "è¡¨è¾¾": 1800,
      "æĽ´å¤ļ": 1801,
      "lic": 1802,
      "ä¼°": 1803,
      "å·²": 1804,
      "åĪĽæĸ°": 1805,
      "Ġche": 1806,
      "ating": 1807,
      "éĶĢ": 1808,
      "èĩªåĬ¨": 1809,
      "èīº": 1810,
      "èı": 1811,
      "\",": 1812,
      "ä¸²": 1813,
      "ç¢": 1814,
      "ä¿®": 1815,
      "æĤ": 1816,
      "Ġ|": 1817,
      "Ġwant": 1818,
      "Ġcurrent": 1819,
      "Ġexample": 1820,
      "ç¨ĭåºı": 1821,
      "æ¬¢": 1822,
      "Ġlar": 1823,
      "nder": 1824,
      "æĺ¯ä¸Ģç§į": 1825,
      "çĽĳ": 1826,
      "ä»½": 1827,
      "Ġwhere": 1828,
      "é£İéĻ©": 1829,
      "Ġprovid": 1830,
      "ath": 1831,
      "å¼Ĥ": 1832,
      "å¯Į": 1833,
      "çļĦæĬ": 1834,
      "çĥŃ": 1835,
      "æĢ§èĥ½": 1836,
      "red": 1837,
      "çĭ¬": 1838,
      "åĩĨç¡®": 1839,
      "æ¯ıä¸ª": 1840,
      "äºĮ": 1841,
      "æ°ĳ": 1842,
      "ss": 1843,
      "Ġquestions": 1844,
      "æĳ": 1845,
      "Ġdif": 1846,
      "Ġbo": 1847,
      "Ġsuch": 1848,
      "æµ·": 1849,
      "éĻį": 1850,
      "Ġtext": 1851,
      "åĲĪä½ľ": 1852,
      "Ġloo": 1853,
      "Ġtw": 1854,
      "å¤±": 1855,
      "å®¢æĪ·": 1856,
      "è®Ńç»ĥ": 1857,
      "éĹ¨": 1858,
      "ĳæĪĺ": 1859,
      "ices": 1860,
      "Ġ9": 1861,
      "ä¸įåĲĮçļĦ": 1862,
      "åĮħåĲ«": 1863,
      "ject": 1864,
      "æĴ": 1865,
      "åĬ¿": 1866,
      "å°Ŀ": 1867,
      "ä»»ä½ķ": 1868,
      "Ġmodel": 1869,
      "ents": 1870,
      "æİ¢": 1871,
      "Ġchar": 1872,
      "é¦ĸåħĪ": 1873,
      "åİĨåı²": 1874,
      "ä¸Ķ": 1875,
      "äººç±»": 1876,
      "ĠHere": 1877,
      "æĪĲæľ¬": 1878,
      "å¾Ģ": 1879,
      "date": 1880,
      "ds": 1881,
      "æĲ": 1882,
      "Ġprint": 1883,
      "èĬ±": 1884,
      "ual": 1885,
      "è´Ń": 1886,
      "å¾®": 1887,
      "ĠY": 1888,
      "Ġtas": 1889,
      "Ġtrans": 1890,
      "ĠAI": 1891,
      "è¿Ļæł·": 1892,
      "å®ļæľŁ": 1893,
      "æ¯Ķå¦Ĥ": 1894,
      "olog": 1895,
      "æĸĩæľ¬": 1896,
      "è®¾ç½®": 1897,
      "å·´å·´": 1898,
      "éĺ¿éĩĮå·´å·´": 1899,
      "au": 1900,
      "Ġfollowing": 1901,
      "è¾¹": 1902,
      "Ġlanguage": 1903,
      "Ġhere": 1904,
      "Ġele": 1905,
      "æııè¿°": 1906,
      "les": 1907,
      "éļ¾": 1908,
      "èģĮ": 1909,
      "ava": 1910,
      "è½¯ä»¶": 1911,
      "Ð¾": 1912,
      "çº¦": 1913,
      "Certainly": 1914,
      "Ġcap": 1915,
      "è¡Įä¸º": 1916,
      "Ġrange": 1917,
      "¿Ģ": 1918,
      "ative": 1919,
      "ues": 1920,
      ").": 1921,
      "Ġtech": 1922,
      "æ³Ľ": 1923,
      "Ġfeel": 1924,
      "ĊĠ": 1925,
      "ĠSt": 1926,
      "Can": 1927,
      "000": 1928,
      "bs": 1929,
      "ful": 1930,
      "It": 1931,
      "å°½": 1932,
      "åŃĺåĤ¨": 1933,
      "æ²»": 1934,
      "åĲĹ": 1935,
      "æĬ¥": 1936,
      "å»ºç«ĭ": 1937,
      "åıĤä¸İ": 1938,
      "å¿«éĢŁ": 1939,
      "åĩ»": 1940,
      "çª": 1941,
      "è¯Ħä¼°": 1942,
      "Ġunder": 1943,
      "å°Ŀè¯ķ": 1944,
      "ors": 1945,
      "Ġtra": 1946,
      "Ġ/": 1947,
      "çļĦæĥħ": 1948,
      "éļıçĿĢ": 1949,
      "ä¸ĸçķĮ": 1950,
      "Ġrec": 1951,
      "æĮī": 1952,
      "Ġtime": 1953,
      "å¤´": 1954,
      "Ġstring": 1955,
      "åħ³äºİ": 1956,
      "åħ·ä½ĵçļĦ": 1957,
      "è¾ĵåĩº": 1958,
      "åŁºæľ¬": 1959,
      "åħ·æľī": 1960,
      "åĪĿ": 1961,
      "çħ§": 1962,
      "åĬ±": 1963,
      "ä¸Ģç§į": 1964,
      "åŃĹç¬¦ä¸²": 1965,
      "cript": 1966,
      "èĮĥ": 1967,
      "ä½łå¥½": 1968,
      "Ġsim": 1969,
      "ä»¥ä¸ĭæĺ¯ä¸ĢäºĽ": 1970,
      "æŃ¥éª¤": 1971,
      "æ¤": 1972,
      "Ġ<": 1973,
      "Ġvalue": 1974,
      "Ġthere": 1975,
      "ery": 1976,
      "æ¬¾": 1977,
      "æ¿Ģ": 1978,
      "eng": 1979,
      "æĭŁ": 1980,
      "Ġdis": 1981,
      "ray": 1982,
      "Ġcontext": 1983,
      "åıĭ": 1984,
      "å¾ģ": 1985,
      "æĹħ": 1986,
      "æµĭè¯ķ": 1987,
      "Ġdiffere": 1988,
      "ll": 1989,
      "åħ´è¶£": 1990,
      "ç§ĳåŃ¦": 1991,
      "åħ¨çĲĥ": 1992,
      "Ġinter": 1993,
      "èĥĮ": 1994,
      "æĬĢæľ¯çļĦ": 1995,
      "å®ĮæĪĲ": 1996,
      "æĸ¹æ¡Ī": 1997,
      "ital": 1998,
      "ä¸įæĸŃ": 1999,
      "ark": 2000,
      "Ġph": 2001,
      "çĽĬ": 2002,
      "led": 2003,
      "Ġi": 2004,
      "æļ": 2005,
      "ç¿": 2006,
      "å·®": 2007,
      "éļĲ": 2008,
      "ber": 2009,
      "ä¹ĭéĹ´çļĦ": 2010,
      "ĠQwen": 2011,
      "ays": 2012,
      "ĠK": 2013,
      "å¿ħ": 2014,
      "éĤ£ä¹Ī": 2015,
      "åĳ¨": 2016,
      "å¹¿æ³Ľ": 2017,
      "roup": 2018,
      "erson": 2019,
      "ics": 2020,
      "çŁ¥è¯Ĩ": 2021,
      "ç§ĳæĬĢ": 2022,
      "ese": 2023,
      "æıĲä¾ĽäºĨ": 2024,
      "å¸Ī": 2025,
      "times": 2026,
      "è´Ł": 2027,
      "åħ»": 2028,
      "Ġnum": 2029,
      "ict": 2030,
      "è¡Įä¸ļ": 2031,
      "Ġtechn": 2032,
      "éĶĻè¯¯": 2033,
      "çļĦæķ°æį®": 2034,
      "è¿Ķ": 2035,
      "èī¯": 2036,
      "',": 2037,
      "Ġcheck": 2038,
      "),": 2039,
      "ails": 2040,
      "æĿ¡ä»¶": 2041,
      "ä»·åĢ¼": 2042,
      "çĪ±": 2043,
      "è¿ĳ": 2044,
      "Ġfree": 2045,
      "gram": 2046,
      "åħĭ": 2047,
      "ç±³": 2048,
      "Ġhis": 2049,
      "åŃĺåľ¨": 2050,
      "hen": 2051,
      "ç®Ģåįķ": 2052,
      "è®¿": 2053,
      "å£°": 2054,
      "ular": 2055,
      "gest": 2056,
      "ĠFor": 2057,
      "åı¤": 2058,
      "ç§ģ": 2059,
      "åįı": 2060,
      "åŁºäºİ": 2061,
      "æĽ´å¥½": 2062,
      "Ġadd": 2063,
      "As": 2064,
      "è´£": 2065,
      "æķ°ç»Ħ": 2066,
      "Ġrel": 2067,
      "å®ļä¹ī": 2068,
      "çīĮ": 2069,
      "å¥¹": 2070,
      "è¯ĨåĪ«": 2071,
      "äººå·¥": 2072,
      "åŁºç¡": 2073,
      "åŁºç¡Ģ": 2074,
      "è¡¨ç¤º": 2075,
      "çĶ»": 2076,
      "ç¦»": 2077,
      "Ġcomput": 2078,
      "row": 2079,
      "åºĶè¯¥": 2080,
      "ä»İèĢĮ": 2081,
      "è¶Ĭ": 2082,
      "è¿ĶåĽŀ": 2083,
      "èĳĹ": 2084,
      "æĿĲæĸĻ": 2085,
      "æŀĹ": 2086,
      "Ġresult": 2087,
      "æĺ¯åľ¨": 2088,
      "ç¼ĸç¨ĭ": 2089,
      "(\"": 2090,
      "andom": 2091,
      "def": 2092,
      "è§£éĩĬ": 2093,
      "åģĩ": 2094,
      "Ġì": 2095,
      "é¼": 2096,
      "ï¼īï¼Į": 2097,
      "éģĩ": 2098,
      "ient": 2099,
      "cial": 2100,
      "ens": 2101,
      "Ġtwo": 2102,
      "å¯»": 2103,
      "Ġsome": 2104,
      "Ġthem": 2105,
      "QL": 2106,
      "ern": 2107,
      "ä¸ĬçļĦ": 2108,
      "Ġwho": 2109,
      "Ġthey": 2110,
      "ä½Ĩæĺ¯": 2111,
      "å¢ŀå¼º": 2112,
      "åı¯èĥ½éľĢè¦ģ": 2113,
      "ä¼Ĺ": 2114,
      "velop": 2115,
      "åŁİå¸Ĥ": 2116,
      "æĤ¨çļĦ": 2117,
      "Ðµ": 2118,
      "der": 2119,
      "åĭ": 2120,
      "åħ±åĲĮ": 2121,
      "Ġtoday": 2122,
      "å¡": 2123,
      "Ġcharact": 2124,
      "fore": 2125,
      "åľºæĻ¯": 2126,
      "åĽłç´ł": 2127,
      "Ġseems": 2128,
      "ble": 2129,
      "ç§»": 2130,
      "çľŁ": 2131,
      "ather": 2132,
      "rough": 2133,
      "ä¸°": 2134,
      "numb": 2135,
      "))": 2136,
      "ater": 2137,
      "cess": 2138,
      "Ġset": 2139,
      "çģµ": 2140,
      "Ġover": 2141,
      "ize": 2142,
      "åŁ¹": 2143,
      "è¦ģæ±Ĥ": 2144,
      "åĿĩ": 2145,
      "Ġdetails": 2146,
      "æĬķèµĦ": 2147,
      "èħ": 2148,
      "ç»ĩ": 2149,
      "ĠIn": 2150,
      "ility": 2151,
      "èĢģ": 2152,
      "ween": 2153,
      "å¤ļç§į": 2154,
      "Ġequation": 2155,
      "ible": 2156,
      "rit": 2157,
      "åı¯ä»¥éĢļè¿ĩ": 2158,
      "Ġpop": 2159,
      "Ġincluding": 2160,
      "æĽ´å¥½åľ°": 2161,
      "èīºæľ¯": 2162,
      "its": 2163,
      "Ġknown": 2164,
      "Ġpre": 2165,
      "ood": 2166,
      "ç½ĳç«Ļ": 2167,
      "Ġprogram": 2168,
      "çŃĶ": 2169,
      "ities": 2170,
      "è½¬æį¢": 2171,
      "Ġbetween": 2172,
      "Ġtasks": 2173,
      "éĺ¿éĩĮäºĳ": 2174,
      "è¶ħ": 2175,
      "ĠChina": 2176,
      "ç¤ºä¾ĭ": 2177,
      "çĻ½": 2178,
      "å¤ª": 2179,
      "ï¼īãĢĤ": 2180,
      "ç¡®å®ļ": 2181,
      "Ġ19": 2182,
      "äº§çĶŁ": 2183,
      "æŃ¢": 2184,
      "Ġsign": 2185,
      "ŁéĢļ": 2186,
      "Ġyear": 2187,
      "Ġpe": 2188,
      "è®¿éĹ®": 2189,
      "ook": 2190,
      "æī§": 2191,
      "Ġdevelop": 2192,
      "ï¼ī**ï¼ļ": 2193,
      "Ġthan": 2194,
      "duct": 2195,
      "èĭ±": 2196,
      "Ġthese": 2197,
      "Ġperson": 2198,
      "å¾ª": 2199,
      "äºī": 2200,
      "Ġcalcul": 2201,
      "é¢Ħæµĭ": 2202,
      "rib": 2203,
      "æĮĳæĪĺ": 2204,
      "åĲ¬": 2205,
      "Ġboth": 2206,
      "Ġdon": 2207,
      "12": 2208,
      "tal": 2209,
      "åıĳçİ°": 2210,
      "ys": 2211,
      "**:": 2212,
      "åĮºåĿĹ": 2213,
      "çļĦå½±åĵį": 2214,
      "å¨": 2215,
      "Ġ12": 2216,
      "çīĪ": 2217,
      "stand": 2218,
      "ç»Ī": 2219,
      "åĸľ": 2220,
      "list": 2221,
      "ä¹°": 2222,
      "åĨį": 2223,
      "This": 2224,
      "äººå·¥æĻºèĥ½": 2225,
      "åĮ»çĸĹ": 2226,
      "ä»ĺ": 2227,
      "å±ŀ": 2228,
      "æ¼Ķ": 2229,
      "çļĦäºº": 2230,
      "çļĦæł": 2231,
      "è®¡åĪĴ": 2232,
      "pon": 2233,
      "è¿ĩç¨ĭä¸Ń": 2234,
      "ä¸°å¯Į": 2235,
      "æ¨¡å¼ı": 2236,
      "åĲĦç§į": 2237,
      "Ġwhen": 2238,
      "ç§¯æŀģ": 2239,
      "åĩĨå¤ĩ": 2240,
      "ä¸Ĭè¿°": 2241,
      "è¿Ĳè¡Į": 2242,
      "æĪĲä¸º": 2243,
      "è¯ī": 2244,
      "è§ī": 2245,
      "Ġtotal": 2246,
      "èįĲ": 2247,
      "æ¦Ĥ": 2248,
      "é¸": 2249,
      "Ġcons": 2250,
      "éĺ³": 2251,
      "ä½ľçĶ¨": 2252,
      "åŃ©": 2253,
      "ä¸įæĺ¯": 2254,
      "é«ĺæķĪ": 2255,
      "Ġtyp": 2256,
      "ower": 2257,
      "æ·»": 2258,
      "è®¨": 2259,
      "Ð°": 2260,
      "ç¨³": 2261,
      "åĨ³çŃĸ": 2262,
      "to": 2263,
      "éĿĻ": 2264,
      "Ġra": 2265,
      "åı¯ä»¥ä½¿çĶ¨": 2266,
      "Ġdiv": 2267,
      "å¸¦æĿ¥": 2268,
      "è¾ĳ": 2269,
      "åºŃ": 2270,
      "è®°å½ķ": 2271,
      "stem": 2272,
      "Ġgre": 2273,
      "çļĦæī": 2274,
      "è¯Ĺ": 2275,
      "Ġlast": 2276,
      "Ġ100": 2277,
      "åŃ¦çĶŁ": 2278,
      "ç«¯": 2279,
      "Ġinteg": 2280,
      "Ġgiven": 2281,
      "Ġsub": 2282,
      "ĠChinese": 2283,
      "è¥": 2284,
      "Ġadv": 2285,
      "ç¤¾äº¤": 2286,
      "ä»¤": 2287,
      "Ġcould": 2288,
      "Who": 2289,
      "è¿ĲåĬ¨": 2290,
      "èıľ": 2291,
      "atest": 2292,
      "åıĤæķ°": 2293,
      "pro": 2294,
      "Ġvers": 2295,
      "å®Ŀ": 2296,
      "çļĦéĩįè¦ģ": 2297,
      "èĻ½": 2298,
      "ĠV": 2299,
      "çĶŁçī©": 2300,
      "Ġdifferent": 2301,
      "å±±": 2302,
      "ä½įç½®": 2303,
      "è¥¿": 2304,
      "ise": 2305,
      "å¤§çļĦ": 2306,
      "é¦Ī": 2307,
      "Ġgenerate": 2308,
      "Ġthrough": 2309,
      "Ġdoes": 2310,
      "è´¢": 2311,
      "ªæĸ½": 2312,
      "è½½": 2313,
      "19": 2314,
      "umn": 2315,
      "15": 2316,
      "éĺħ": 2317,
      "Ġind": 2318,
      "è¯¦": 2319,
      "Ġcount": 2320,
      "ÑĤ": 2321,
      "Sure": 2322,
      "åĩłä¸ª": 2323,
      "åĵģçīĮ": 2324,
      "æ³ķå¾ĭ": 2325,
      "æī§è¡Į": 2326,
      "åħ¸": 2327,
      "èĻ½çĦ¶": 2328,
      "çģ«": 2329,
      "èĥĮæĻ¯": 2330,
      "éŁ³ä¹Ĳ": 2331,
      "ä¸ļåĬ¡": 2332,
      "æĸ¯": 2333,
      "So": 2334,
      "åħ¶ä¸Ń": 2335,
      "éĢŁåº¦": 2336,
      "ä¼¼": 2337,
      "æİ¨èįĲ": 2338,
      "Ġmult": 2339,
      "åĽ½éĻħ": 2340,
      "çĬ¶æĢģ": 2341,
      "åĪ¶ä½ľ": 2342,
      "Ġsqu": 2343,
      "Ġtechnolog": 2344,
      "æŀ¶": 2345,
      "åıįé¦Ī": 2346,
      "Ġstart": 2347,
      "ç»¿": 2348,
      "è¡¡": 2349,
      "Ġget": 2350,
      "è§Ĵèī²": 2351,
      "åĽ½å®¶": 2352,
      "get": 2353,
      "xim": 2354,
      "Ġdesign": 2355,
      "co": 2356,
      "åį°": 2357,
      "If": 2358,
      "æ»¡è¶³": 2359,
      "ä¸Ģä¸ĭ": 2360,
      "å®¶åºŃ": 2361,
      "ç»Ħç»ĩ": 2362,
      "äº¤æµģ": 2363,
      "riend": 2364,
      "çļĦæĦ": 2365,
      "Ġmat": 2366,
      "èİ·åıĸ": 2367,
      "ĠCould": 2368,
      "è¿½": 2369,
      "å¼ł": 2370,
      "ob": 2371,
      "ä¼łç»Ł": 2372,
      "æłĳ": 2373,
      "é¼ĵ": 2374,
      "Ġunderstand": 2375,
      "Ġcor": 2376,
      "å¿ĥçĲĨ": 2377,
      "æİªæĸ½": 2378,
      "Ġgo": 2379,
      "Ġhum": 2380,
      "èį¯": 2381,
      "äº¤æĺĵ": 2382,
      "round": 2383,
      "Ġimport": 2384,
      "çļĦä¸Ģ": 2385,
      "èĻļ": 2386,
      "ç¨³å®ļ": 2387,
      "ä»ĭ": 2388,
      "è¿Ļä¸Ģ": 2389,
      "åĩºçİ°": 2390,
      "Ð¸": 2391,
      "ational": 2392,
      "nce": 2393,
      "é¢Ŀ": 2394,
      "cre": 2395,
      "Ġno": 2396,
      "Ġart": 2397,
      "åĪĩ": 2398,
      "åª": 2399,
      "Ġel": 2400,
      "å¸¸è§ģ": 2401,
      "çļĦæĮ": 2402,
      "éĩıåŃĲ": 2403,
      "Ġke": 2404,
      "åĽĽ": 2405,
      "å²": 2406,
      "å½Ĵ": 2407,
      "ç¤¾åĮº": 2408,
      "Ġmain": 2409,
      "è¿ŀæİ¥": 2410,
      "åľ¨çº¿": 2411,
      "é¥®": 2412,
      "å½ĵçĦ¶": 2413,
      "åĶ®": 2414,
      "ç»´æĬ¤": 2415,
      "çļĦå®īåħ¨": 2416,
      "çŁŃ": 2417,
      "è¯ĳ": 2418,
      "Ġlatest": 2419,
      "æĥħæĦŁ": 2420,
      "ç«ŀ": 2421,
      "ian": 2422,
      "Ġthen": 2423,
      "æ¶ī": 2424,
      "æ¤į": 2425,
      "éĩıçļĦ": 2426,
      "Ġ2023": 2427,
      "Ġrem": 2428,
      "wor": 2429,
      "å±Ģ": 2430,
      "num": 2431,
      "çº¢": 2432,
      "Ġbeen": 2433,
      "ake": 2434,
      "åħ³æ³¨": 2435,
      "æĪĲåĳĺ": 2436,
      "ick": 2437,
      "()`": 2438,
      "è¯¦ç»Ĩ": 2439,
      "ident": 2440,
      "æłĩåĩĨ": 2441,
      "Ġsignific": 2442,
      "è¿ĻéĩĮ": 2443,
      "sq": 2444,
      "èĮĥåĽ´": 2445,
      "ength": 2446,
      "iness": 2447,
      "æķĪæŀľ": 2448,
      "å¹²": 2449,
      "çİ©": 2450,
      "Ġcomple": 2451,
      "æ´ģ": 2452,
      "æĬĢèĥ½": 2453,
      "Ġoften": 2454,
      "ages": 2455,
      "çļĦæĶ": 2456,
      "éļĲç§ģ": 2457,
      "rest": 2458,
      "Ġrefer": 2459,
      "èĽ": 2460,
      "æ³¢": 2461,
      "éĥ½æĺ¯": 2462,
      ");": 2463,
      "åŃ©åŃĲ": 2464,
      "ç´§": 2465,
      "æħ": 2466,
      "éĢı": 2467,
      "å°Ķ": 2468,
      "åĸĦ": 2469,
      "hes": 2470,
      "æĿ¾": 2471,
      "ä¾Ŀ": 2472,
      "åĢĻ": 2473,
      "Ġservices": 2474,
      "çĶµåŃĲ": 2475,
      "æŃ£ç¡®": 2476,
      "å·²ç»ı": 2477,
      "æīį": 2478,
      "çļĦæİ": 2479,
      "æľºåĪ¶": 2480,
      "çī¹åĪ«": 2481,
      "åĪĽéĢł": 2482,
      "ä½¿å¾Ĺ": 2483,
      "åªĴ": 2484,
      "11": 2485,
      "Ġdep": 2486,
      "Is": 2487,
      "ä¸ĢæŃ¥": 2488,
      "åĵªäºĽ": 2489,
      "èģĶç³»": 2490,
      "é¼ĵåĬ±": 2491,
      "å¥ĩ": 2492,
      "éĢĤåºĶ": 2493,
      "ï¼Ľ": 2494,
      "çļĦæĬĢ": 2495,
      "ä¸ªæĢ§": 2496,
      "ç¿»": 2497,
      "Ġjust": 2498,
      "Ġbus": 2499,
      "Ġreg": 2500,
      "å½¢æĪĲ": 2501,
      "ĠĠĠĠĠ": 2502,
      "here": 2503,
      "çªģ": 2504,
      "éģĩåĪ°": 2505,
      "âĢĿãĢĤ": 2506,
      "Write": 2507,
      "çļĦéĹ®é¢ĺ": 2508,
      "åĪ»": 2509,
      "lect": 2510,
      "ä¹ĭä¸Ģ": 2511,
      "å¾Ħ": 2512,
      "äººä»¬": 2513,
      "Ġfact": 2514,
      "æ·»åĬł": 2515,
      "åĳĺå·¥": 2516,
      "äº¤éĢļ": 2517,
      "ose": 2518,
      "é¾": 2519,
      "ove": 2520,
      "ax": 2521,
      "Ġvarious": 2522,
      "Ġbased": 2523,
      "åĬłåħ¥": 2524,
      "cept": 2525,
      "æĪĲåĬŁ": 2526,
      "ĠGroup": 2527,
      "åĮºåĿĹéĵ¾": 2528,
      "50": 2529,
      "åģı": 2530,
      "çļĦä¿¡æģ¯": 2531,
      "Ġoper": 2532,
      "name": 2533,
      "åĲ¸å¼ķ": 2534,
      "æ¹": 2535,
      "åį¡": 2536,
      "ract": 2537,
      "æİ¢ç´¢": 2538,
      "æĽ´æĸ°": 2539,
      "Ġlear": 2540,
      "ç©ºéĹ´": 2541,
      "inal": 2542,
      "æ¶īåıĬ": 2543,
      "æ½": 2544,
      "ural": 2545,
      "ars": 2546,
      "Ġmany": 2547,
      "blem": 2548,
      "Ġsk": 2549,
      "è¿ĺèĥ½": 2550,
      "ä¸ĭéĿ¢": 2551,
      "æľīæīĢ": 2552,
      "Ġcreate": 2553,
      "æĺİç¡®": 2554,
      "ince": 2555,
      "æŀĦå»º": 2556,
      "ings": 2557,
      "æĹłæ³ķ": 2558,
      "éĢĲ": 2559,
      "æĦıåĳ³": 2560,
      "æĪ¿": 2561,
      "å¾ĹåĪ°": 2562,
      "äººçļĦ": 2563,
      "åªĴä½ĵ": 2564,
      "âĢĿï¼Į": 2565,
      "Ġsupp": 2566,
      "è¿Ļæĺ¯": 2567,
      "æĴŃ": 2568,
      "old": 2569,
      "åıĹåĪ°": 2570,
      "çı": 2571,
      "çĦ¶èĢĮ": 2572,
      "pect": 2573,
      "Ġsquare": 2574,
      "è®¡ç®Ĺæľº": 2575,
      "ude": 2576,
      "æŃ¤å¤ĸ": 2577,
      "è¿İ": 2578,
      "ically": 2579,
      "æİĴåºı": 2580,
      "æľĢåĲİ": 2581,
      "Ġprocess": 2582,
      "ause": 2583,
      "éĩĳèŀį": 2584,
      "å®³": 2585,
      "Ġloc": 2586,
      "åĪĨäº«": 2587,
      "æ²¹": 2588,
      "Ġsm": 2589,
      "çļĦæ°": 2590,
      "è¯¾": 2591,
      "ä»·æł¼": 2592,
      "é¡µ": 2593,
      "dition": 2594,
      "åĪ¤": 2595,
      "æŁĲäºĽ": 2596,
      "Ġbl": 2597,
      "æķ°æį®åºĵ": 2598,
      ",\"": 2599,
      "Â·": 2600,
      "çī¹å¾ģ": 2601,
      "éļľ": 2602,
      "åģĩè®¾": 2603,
      "åįĹ": 2604,
      "Given": 2605,
      "Ġexpress": 2606,
      "åĳĬè¯ī": 2607,
      "Ġfil": 2608,
      "åĽ¾åĥı": 2609,
      "ci": 2610,
      "Ġquestion": 2611,
      "ä¸ªæĢ§åĮĸ": 2612,
      "ç¯": 2613,
      "ced": 2614,
      "ĠĊ": 2615,
      "é¤": 2616,
      "Ġpos": 2617,
      "elf": 2618,
      "å°¤": 2619,
      "å¦ĤæŀľæĤ¨": 2620,
      "æĪĳåı¯ä»¥": 2621,
      "å®ļçļĦ": 2622,
      "èĦĳ": 2623,
      "Ġlead": 2624,
      "æĦıåĳ³çĿĢ": 2625,
      "Ġproblem": 2626,
      "å±ħ": 2627,
      "ix": 2628,
      "æŃĮ": 2629,
      "Ġtable": 2630,
      "è´¦": 2631,
      "ç¾¤": 2632,
      "ited": 2633,
      "åľ°åĮº": 2634,
      "çĶŁäº§": 2635,
      "çļĦåıĳå±ķ": 2636,
      "æĶ¶éĽĨ": 2637,
      "èµĽ": 2638,
      "åıĪ": 2639,
      "å®¡": 2640,
      "ä¸Ģæ¬¡": 2641,
      "Ġcommon": 2642,
      "ople": 2643,
      "å·§": 2644,
      "ution": 2645,
      "Ġappro": 2646,
      "æĶ¿çŃĸ": 2647,
      "é¤Ĳ": 2648,
      "çİ°ä»£": 2649,
      "è§ĦåĪĴ": 2650,
      "åŃ£": 2651,
      "ä½ı": 2652,
      "Ġtransl": 2653,
      "Ġdef": 2654,
      "Ġpar": 2655,
      "å¾·": 2656,
      "çİ¯ä¿Ŀ": 2657,
      "ä¸»é¢ĺ": 2658,
      "Ġbusiness": 2659,
      "è¡¨çİ°": 2660,
      "ãģ®": 2661,
      "èĤ¡": 2662,
      "æ·±åº¦": 2663,
      "Ġmake": 2664,
      "æŁĵ": 2665,
      "éĺħè¯»": 2666,
      "ĠUn": 2667,
      "éģµ": 2668,
      "èĲ½": 2669,
      "ĠEng": 2670,
      "è®²": 2671,
      "å¾ħ": 2672,
      "Ġever": 2673,
      "Ġact": 2674,
      "çļĦæ¸": 2675,
      "è§£åĨ³æĸ¹æ¡Ī": 2676,
      "Ġrandom": 2677,
      "çļĦåºĶçĶ¨": 2678,
      "èģĶç½ĳ": 2679,
      "iqu": 2680,
      "æ¶Īè´¹": 2681,
      "irect": 2682,
      "æľºåĻ¨åŃ¦ä¹ł": 2683,
      "100": 2684,
      "lish": 2685,
      "Ġinv": 2686,
      "åĲĪéĢĤ": 2687,
      "rt": 2688,
      "mer": 2689,
      "åĪĽå»ºä¸Ģä¸ª": 2690,
      "éĻįä½İ": 2691,
      "é²": 2692,
      "å®ĺ": 2693,
      "ĠPlease": 2694,
      "string": 2695,
      "èİ·å¾Ĺ": 2696,
      "æľºä¼ļ": 2697,
      "èĤī": 2698,
      "å®¤": 2699,
      "æĭ¥": 2700,
      "è®¸å¤ļ": 2701,
      "..": 2702,
      "æľĭ": 2703,
      "æĿ¥è¯´": 2704,
      "ec": 2705,
      "Ġonly": 2706,
      "ç»ĵåĲĪ": 2707,
      "é¦Ļ": 2708,
      "ä¸Ńå¿ĥ": 2709,
      "åıĳçĶŁ": 2710,
      "$.": 2711,
      "åĲĪçĲĨ": 2712,
      "åİĭåĬĽ": 2713,
      "åħħæ»¡": 2714,
      "çĨ": 2715,
      "verage": 2716,
      "ï¼īãĢģ": 2717,
      "Ġproduct": 2718,
      "val": 2719,
      "ost": 2720,
      "icial": 2721,
      "å¦": 2722,
      "çļĦæŃ": 2723,
      "Ġcompan": 2724,
      "è§Ĩé¢ĳ": 2725,
      "ts": 2726,
      "ula": 2727,
      "mat": 2728,
      "iel": 2729,
      "Ġweather": 2730,
      "æ¯į": 2731,
      "å¤ľ": 2732,
      "Ġfriend": 2733,
      "Ġrequ": 2734,
      "ä½ľåĵģ": 2735,
      "åº¦åĴĮ": 2736,
      "æł¸": 2737,
      "ily": 2738,
      "numbers": 2739,
      "imal": 2740,
      "åıĺéĩı": 2741,
      "Ġask": 2742,
      "Ġwide": 2743,
      "æİ¨åĬ¨": 2744,
      "Ġinst": 2745,
      "ĠWor": 2746,
      "è´Ńä¹°": 2747,
      "Ð½": 2748,
      "åĲ¯": 2749,
      "åįİ": 2750,
      "Ġcloud": 2751,
      "æĹ¢": 2752,
      "èĥ½æºĲ": 2753,
      "ized": 2754,
      "refore": 2755,
      "Ġpopul": 2756,
      "è¿ĽæŃ¥": 2757,
      "uring": 2758,
      "è¿ĺæĺ¯": 2759,
      "Al": 2760,
      "á»": 2761,
      "eters": 2762,
      "å°Ħ": 2763,
      "up": 2764,
      "åĪ¶å®ļ": 2765,
      "åĦ": 2766,
      "ething": 2767,
      "ute": 2768,
      "åľ¨è¿Ļä¸ª": 2769,
      "å¸ģ": 2770,
      "èĽĭ": 2771,
      "Ġrespon": 2772,
      "Ġway": 2773,
      "ç³ĸ": 2774,
      "app": 2775,
      "çĶµå½±": 2776,
      "æľĭåıĭ": 2777,
      "Ġeven": 2778,
      "æĢ§çļĦ": 2779,
      "æ²ŁéĢļ": 2780,
      "çļĦæĥħåĨµ": 2781,
      "Ġfound": 2782,
      "éĢĴ": 2783,
      "Ġdec": 2784,
      "çļĦæ¯": 2785,
      "hip": 2786,
      "åĽŃ": 2787,
      "Ġeff": 2788,
      "è¡Ģ": 2789,
      "ç«ŀäºī": 2790,
      "own": 2791,
      "'d": 2792,
      "Ñģ": 2793,
      "Ġsignificant": 2794,
      "Ġlight": 2795,
      "èĻļæĭŁ": 2796,
      "Ġmean": 2797,
      "Ġsomething": 2798,
      "ash": 2799,
      "åĪĨç±»": 2800,
      "ä¸¥": 2801,
      "ç»§": 2802,
      "Ġnam": 2803,
      "æ¬¢è¿İ": 2804,
      "æĹłè®º": 2805,
      "æĿ¿": 2806,
      "Ġreal": 2807,
      "Ġarea": 2808,
      "åķ¡": 2809,
      "çĶ±äºİ": 2810,
      "å¿Ĺ": 2811,
      "ç¼ĵ": 2812,
      "ife": 2813,
      "Ġdig": 2814,
      "å°Ĭ": 2815,
      "é£ŀ": 2816,
      "å£«": 2817,
      "Ġ\\[": 2818,
      "èº«ä½ĵ": 2819,
      "éªĮè¯ģ": 2820,
      "æĺł": 2821,
      "éĥ½æľī": 2822,
      "Ġstand": 2823,
      "ER": 2824,
      "éķ¿æľŁ": 2825,
      "quence": 2826,
      "ä¸ľ": 2827,
      "ving": 2828,
      "arr": 2829,
      "Ġhapp": 2830,
      "æĶ¯ä»ĺ": 2831,
      "Ġaccur": 2832,
      "Ġher": 2833,
      "å¯¹è±¡": 2834,
      "æī©": 2835,
      "æŁ¥è¯¢": 2836,
      "æĥ³è¦ģ": 2837,
      "loy": 2838,
      "å¥¶": 2839,
      "Ġaccess": 2840,
      "Ġsystem": 2841,
      "Ġofficial": 2842,
      "é¡º": 2843,
      "Ġhigh": 2844,
      "Ġcapital": 2845,
      "ç¥¨": 2846,
      "åĴĸ": 2847,
      "å½ĵåīį": 2848,
      "éĢģ": 2849,
      "è·µ": 2850,
      "import": 2851,
      "rect": 2852,
      "Ġpartic": 2853,
      "Ġdesigned": 2854,
      "æķ´æķ°": 2855,
      "ç»¼": 2856,
      "ĠCan": 2857,
      "ç«ł": 2858,
      "EC": 2859,
      "'ll": 2860,
      "å±ķç¤º": 2861,
      "å¾ªçİ¯": 2862,
      "cy": 2863,
      "log": 2864,
      "Ġplay": 2865,
      "Ġsolve": 2866,
      "æ¡£": 2867,
      "åĴĸåķ¡": 2868,
      "æĸ¹åĲĳ": 2869,
      "çļĦåľ°": 2870,
      "å®ŀè·µ": 2871,
      "è½¬æį¢ä¸º": 2872,
      "ild": 2873,
      "çķĻ": 2874,
      "å®Ī": 2875,
      "Ġ15": 2876,
      "èģĮä¸ļ": 2877,
      "å°¤åħ¶": 2878,
      "æĭī": 2879,
      "åıĮ": 2880,
      "äºĨä¸Ģä¸ª": 2881,
      "Ġclass": 2882,
      "Ġformula": 2883,
      "äºĶ": 2884,
      "çļĦæĹ¶éĹ´": 2885,
      "æĶ¹åıĺ": 2886,
      "Ġstate": 2887,
      "ç»į": 2888,
      "çĲĨè®º": 2889,
      "Ġpoint": 2890,
      "Ġent": 2891,
      "St": 2892,
      "Ġday": 2893,
      "æįŁ": 2894,
      "ç¼º": 2895,
      "ately": 2896,
      "æī¿": 2897,
      "èµ·æĿ¥": 2898,
      "Ġtry": 2899,
      "Ġsupport": 2900,
      "Ġrele": 2901,
      "ä¼ļè®®": 2902,
      "è¶ĭ": 2903,
      "ä¹Łæĺ¯": 2904,
      "ources": 2905,
      "ending": 2906,
      "çļĦæµ": 2907,
      "Ġversion": 2908,
      "Ġline": 2909,
      "py": 2910,
      "é£İæł¼": 2911,
      "ting": 2912,
      "¨è¯¢": 2913,
      "åĴ¨è¯¢": 2914,
      "ĠHe": 2915,
      "ä¸´": 2916,
      "åł": 2917,
      "çļĦæ³": 2918,
      "ä»ĭç»į": 2919,
      "éĩįè¦ģçļĦ": 2920,
      "30": 2921,
      "Ð¾Ð": 2922,
      "å¤§å°ı": 2923,
      "Ġtop": 2924,
      "è´§": 2925,
      "é©¬": 2926,
      "Ġbest": 2927,
      "ç»Ļåĩº": 2928,
      "åĨ·": 2929,
      "è¿Ľä¸ĢæŃ¥": 2930,
      "è§ĦåĪĻ": 2931,
      "ov": 2932,
      "æ¦Ĥå¿µ": 2933,
      "æĪĲéķ¿": 2934,
      "èĹ": 2935,
      "Ġperform": 2936,
      "Ġcreated": 2937,
      "ç¼ĸåĨĻ": 2938,
      "Ġide": 2939,
      "çŁ³": 2940,
      "ľç´¢": 2941,
      "èĩªæĪĳ": 2942,
      "Ġwork": 2943,
      "light": 2944,
      "cle": 2945,
      "âĢĻ": 2946,
      "Ġinterest": 2947,
      "å½©": 2948,
      "arch": 2949,
      "å®īè£ħ": 2950,
      "tern": 2951,
      "åĪĽä½ľ": 2952,
      "25": 2953,
      "Ġlong": 2954,
      "çī¹çĤ¹": 2955,
      "Ġrep": 2956,
      "ience": 2957,
      "Ġinput": 2958,
      "éĺ¶": 2959,
      "è´£ä»»": 2960,
      "Ġbook": 2961,
      "Ġdirect": 2962,
      "ĊĠĠĠĠĠĠĠĠĠĠĠ": 2963,
      "å½¢å¼ı": 2964,
      "åºĹ": 2965,
      "ublic": 2966,
      "ìĿ": 2967,
      "ĠWorld": 2968,
      "åĨ²": 2969,
      "çĭ¬çī¹": 2970,
      "æķ°æį®çļĦ": 2971,
      "æīĢä»¥": 2972,
      "Ġshould": 2973,
      "å¯»æī¾": 2974,
      "Ġpeople": 2975,
      "ĠEnglish": 2976,
      "æķ°åŃ¦": 2977,
      "ruct": 2978,
      "ox": 2979,
      "åĨħéĥ¨": 2980,
      "è¶ĭåĬ¿": 2981,
      "Ġcomputing": 2982,
      "çī¹å®ļçļĦ": 2983,
      "çļ®": 2984,
      "éĨ": 2985,
      "åĨ³å®ļ": 2986,
      "æľįåĬ¡åĻ¨": 2987,
      "åĽ°": 2988,
      "ä¹ĺ": 2989,
      "åĲįç§°": 2990,
      "ator": 2991,
      "ç¡¬": 2992,
      "å¿ħè¦ģ": 2993,
      "Ġlarge": 2994,
      "Ġmin": 2995,
      "Ġassistance": 2996,
      "äºĭä»¶": 2997,
      "çļĦæ²": 2998,
      "åľ°çĲĥ": 2999,
      "çĽĸ": 3000,
      "åıĬæĹ¶": 3001,
      "Ġwebs": 3002,
      "gy": 3003,
      "èī¯å¥½çļĦ": 3004,
      "ming": 3005,
      "Ã©": 3006,
      "ç¿»è¯ĳ": 3007,
      "16": 3008,
      "éĻ¢": 3009,
      "ink": 3010,
      "æķ°éĩı": 3011,
      "Ġupdate": 3012,
      "æĺ¯ä»Ģä¹Ī": 3013,
      "åĦ¿": 3014,
      "èĬĤçĤ¹": 3015,
      "åĨľ": 3016,
      "Ġquery": 3017,
      "çī©çĲĨ": 3018,
      "å¥³": 3019,
      "æķ£": 3020,
      "æĿİ": 3021,
      "Ġtechnology": 3022,
      "Ġarray": 3023,
      "åľŁ": 3024,
      "Ġstr": 3025,
      "Ġvalues": 3026,
      "Script": 3027,
      "ÑĢ": 3028,
      "hed": 3029,
      "å¯Ł": 3030,
      "ä¸įä¼ļ": 3031,
      "ows": 3032,
      "çĽĺ": 3033,
      "éĵ¶": 3034,
      "åķĨåĵģ": 3035,
      "Ġlargest": 3036,
      "eb": 3037,
      "é¢ľ": 3038,
      "åı¶": 3039,
      "str": 3040,
      "ctions": 3041,
      "æ²»çĸĹ": 3042,
      "raph": 3043,
      "Ġbu": 3044,
      "åĸľæ¬¢": 3045,
      "æ°´å¹³": 3046,
      "æ½ľ": 3047,
      "Ġword": 3048,
      "è§¦": 3049,
      "çĸ¾": 3050,
      "éĴŁ": 3051,
      "Ġwhile": 3052,
      "Ġexper": 3053,
      "æľºæŀĦ": 3054,
      "çļĦæĻ": 3055,
      "åĽº": 3056,
      "Ġcharacter": 3057,
      "ides": 3058,
      "Ġac": 3059,
      "èģļ": 3060,
      "Java": 3061,
      "Ġstep": 3062,
      "illion": 3063,
      "è®¤ä¸º": 3064,
      "éĿ¢å¯¹": 3065,
      "ert": 3066,
      "Ġdist": 3067,
      "ew": 3068,
      "ric": 3069,
      "ons": 3070,
      "æ¢¦": 3071,
      "æĤ£": 3072,
      "å®Įåħ¨": 3073,
      "èĮ¶": 3074,
      "cd": 3075,
      "åĳ½ä»¤": 3076,
      "éħįç½®": 3077,
      "fter": 3078,
      "è·Ŀ": 3079,
      "Ġpol": 3080,
      "Ġlearning": 3081,
      "æĺ¯æĮĩ": 3082,
      "Ġcalculate": 3083,
      "âĢĶ": 3084,
      "è¯¾ç¨ĭ": 3085,
      "Ġ}": 3086,
      "é¡¾": 3087,
      "Ġcorrect": 3088,
      "ä¸Ģèµ·": 3089,
      "Ġla": 3090,
      "ĠçļĦ": 3091,
      "ä¿®æĶ¹": 3092,
      "word": 3093,
      "Ġread": 3094,
      "14": 3095,
      "äºĴåĬ¨": 3096,
      "Ġcent": 3097,
      "^{": 3098,
      "ustom": 3099,
      "arth": 3100,
      "Ġwell": 3101,
      "æĺ¥": 3102,
      "ä¾ĭåŃĲ": 3103,
      "åĮĹ": 3104,
      "Ġelse": 3105,
      "åĳĬè¯īæĪĳ": 3106,
      "éĩĩçĶ¨": 3107,
      "Ø§": 3108,
      "å¯¹è¯Ŀ": 3109,
      "åı¯ä»¥åľ¨": 3110,
      "çļĦæĸ¹æ³ķ": 3111,
      "åı¯ä»¥å¸®åĬ©": 3112,
      "ough": 3113,
      "çŃ¾": 3114,
      "itive": 3115,
      "æ¸Ĳ": 3116,
      "é»ĳ": 3117,
      "èĢħçļĦ": 3118,
      "çĮ®": 3119,
      "SS": 3120,
      "åıįåºĶ": 3121,
      "æĺ¾ç¤º": 3122,
      "è®¨è®º": 3123,
      "Ġsec": 3124,
      "Ġlooking": 3125,
      "çļĦå·¥ä½ľ": 3126,
      "ĠAd": 3127,
      "\\(": 3128,
      "ah": 3129,
      "åĬłå¯Ĩ": 3130,
      "Ġhuman": 3131,
      "æ¡Ĩ": 3132,
      "éĤ®": 3133,
      "æĪĳå°Ĩ": 3134,
      "ä½ĵçİ°": 3135,
      "Ġeng": 3136,
      "éĶĢåĶ®": 3137,
      "line": 3138,
      "\\).": 3139,
      "çĶŁæĢģ": 3140,
      "åĲĮæĹ¶ä¹Ł": 3141,
      "éĴĪ": 3142,
      "åºľ": 3143,
      "äºĨä¸Ģ": 3144,
      "åŁ¹è®Ń": 3145,
      "æĸĩæ¡£": 3146,
      "ä¼¤": 3147,
      "éģį": 3148,
      "\":": 3149,
      "Ġsun": 3150,
      "iss": 3151,
      "æĭ¥æľī": 3152,
      "åºĶå¯¹": 3153,
      "åı¯æĮģç»Ń": 3154,
      "çļĦæľĢ": 3155,
      "Ġposs": 3156,
      "çļĦæĬĢæľ¯": 3157,
      "çĶŁåĳ½": 3158,
      "ik": 3159,
      "åĬŀ": 3160,
      "Ġrun": 3161,
      "æµģç¨ĭ": 3162,
      "Ġpopulation": 3163,
      "ases": 3164,
      "æĹ¥å¸¸": 3165,
      "å¹¶ä¸į": 3166,
      "Ġpersonal": 3167,
      "Ġaccurate": 3168,
      "ploy": 3169,
      "Ġbre": 3170,
      "Ġgu": 3171,
      "éħĴ": 3172,
      "ä¸½": 3173,
      "èĪª": 3174,
      "Ġsimple": 3175,
      "éļıæľº": 3176,
      "æĲľç´¢": 3177,
      "åı¦": 3178,
      "åį³ä½¿": 3179,
      "æĹ©": 3180,
      "SQL": 3181,
      "gle": 3182,
      "åı¥åŃĲ": 3183,
      "comm": 3184,
      "éĩĩåıĸ": 3185,
      "ethod": 3186,
      "éķ¿åº¦": 3187,
      "è¿ĻæľīåĬ©äºİ": 3188,
      "PI": 3189,
      "Ġchange": 3190,
      "Ġshe": 3191,
      "ãģĻ": 3192,
      "ren": 3193,
      "ç»§ç»Ń": 3194,
      "æĦŁåĪ°": 3195,
      "æł¡": 3196,
      "Ġ16": 3197,
      "çł´": 3198,
      "è®¾å®ļ": 3199,
      "wn": 3200,
      "hether": 3201,
      "Ġmess": 3202,
      "Ġ30": 3203,
      "è´¢åĬ¡": 3204,
      "Ġ==": 3205,
      "é¢ľèī²": 3206,
      "æĹ¨": 3207,
      "è¾¾åĪ°": 3208,
      "alth": 3209,
      "çĸ¾çĹħ": 3210,
      "ï¼Į`": 3211,
      "vert": 3212,
      "Ġë": 3213,
      "åĬª": 3214,
      "ä»£è¡¨": 3215,
      "itions": 3216,
      "Ġtype": 3217,
      "éĢıæĺİ": 3218,
      "ome": 3219,
      "ĠWhether": 3220,
      "æĦ¿": 3221,
      "æĢ¥": 3222,
      "\")": 3223,
      "æĥħåĨµä¸ĭ": 3224,
      "ef": 3225,
      "æ¸ħæĻ": 3226,
      "ĠWhat": 3227,
      "å¹³è¡¡": 3228,
      "Ġmulti": 3229,
      "lob": 3230,
      "åĪĨå¸ĥ": 3231,
      "é²ľ": 3232,
      "Ġaverage": 3233,
      "iron": 3234,
      "Ġcolumn": 3235,
      "æİ¥åıĹ": 3236,
      "SE": 3237,
      "Ġest": 3238,
      "æĹħè¡Į": 3239,
      "Ġdesc": 3240,
      "Ġpass": 3241,
      "éĻĲåĪ¶": 3242,
      "Ġz": 3243,
      "æĺ¾èĳĹ": 3244,
      "æ·±åħ¥": 3245,
      "å°Ĭéĩį": 3246,
      "èĴ": 3247,
      "åģļåĩº": 3248,
      "gan": 3249,
      "Ġhappy": 3250,
      "åĬªåĬĽ": 3251,
      "ç§»åĬ¨": 3252,
      "Ġlength": 3253,
      "ability": 3254,
      "ä»¥ä¸ĭåĩłä¸ª": 3255,
      "å¸ĮæľĽè¿ĻäºĽ": 3256,
      "ument": 3257,
      "ĊĠĠĠĠ": 3258,
      "ç¨İ": 3259,
      "ä½Ĩä¸į": 3260,
      "éĢ»": 3261,
      "ä½łåı¯ä»¥ä½¿çĶ¨": 3262,
      "Ġ>": 3263,
      "ined": 3264,
      "ç»ª": 3265,
      "è°ĥçĶ¨": 3266,
      "ied": 3267,
      "ç¼©": 3268,
      "å¤§éĩı": 3269,
      "Ġpoem": 3270,
      "ures": 3271,
      "ique": 3272,
      "ven": 3273,
      "è¿½æ±Ĥ": 3274,
      "akes": 3275,
      "æĹ¨åľ¨": 3276,
      "Ġpower": 3277,
      "éĢ»è¾ĳ": 3278,
      "resent": 3279,
      "åı¯èĥ½çļĦ": 3280,
      "è¿Ļåı¯èĥ½": 3281,
      "Ġsequence": 3282,
      "çļĦçĶŁæ´»": 3283,
      "ĠZ": 3284,
      "¢å¤į": 3285,
      "Ġgood": 3286,
      "ex": 3287,
      "åºıåĪĹ": 3288,
      "rans": 3289,
      "ç³»åĪĹ": 3290,
      "ä½³": 3291,
      "äºļ": 3292,
      "als": 3293,
      "You": 3294,
      "ä¾ĽåºĶ": 3295,
      "åĬ¨çī©": 3296,
      "Ġob": 3297,
      "Ġhist": 3298,
      "é»Ħ": 3299,
      "Ġconvers": 3300,
      "æĪĳä»¬åı¯ä»¥": 3301,
      "é©¶": 3302,
      "åī§": 3303,
      "ug": 3304,
      "ç¬¦åĲĪ": 3305,
      "Ġshort": 3306,
      "Ġag": 3307,
      "ä¸¾": 3308,
      "my": 3309,
      "ware": 3310,
      "Ġkey": 3311,
      "å¤ļæł·": 3312,
      "çģµæ´»": 3313,
      "Ġwrite": 3314,
      "Ġpur": 3315,
      "22": 3316,
      "æīĵåį°": 3317,
      "ç¡®å®ŀ": 3318,
      "Ġhand": 3319,
      "çİ©å®¶": 3320,
      "éģĹ": 3321,
      "à¹": 3322,
      "çļĦæ·": 3323,
      "ç§ĺ": 3324,
      "els": 3325,
      "Ġprim": 3326,
      "Ġlife": 3327,
      "çļĦç¼": 3328,
      "çĽĳæİ§": 3329,
      "ç¤¾äº¤åªĴä½ĵ": 3330,
      "Ġ25": 3331,
      "åħ¨éĿ¢": 3332,
      "èĵ": 3333,
      "Ġgrow": 3334,
      "å®ŀéªĮ": 3335,
      "aut": 3336,
      "æķı": 3337,
      "Ġexpl": 3338,
      "çĵ": 3339,
      "åºķ": 3340,
      "çĤ¹åĩ»": 3341,
      "çİ°å®ŀ": 3342,
      "ç®ĢåįķçļĦ": 3343,
      "ç»ıéªĮ": 3344,
      "è·¨": 3345,
      "èĹı": 3346,
      "éĩįå¤į": 3347,
      "æĶ¿åºľ": 3348,
      "Ġsoft": 3349,
      "æĳĦ": 3350,
      "éŃ": 3351,
      "çľ¼": 3352,
      "é£Łçī©": 3353,
      "Ġwords": 3354,
      "ä¼¦": 3355,
      "ĠSQL": 3356,
      "åĲİçļĦ": 3357,
      "Ġyears": 3358,
      "äº®": 3359,
      "æĥ¯": 3360,
      "æ¤įçī©": 3361,
      "ä¼ĳ": 3362,
      "æ¸ħæĻ°": 3363,
      "Ġaround": 3364,
      "ç§°ä¸º": 3365,
      "ä¸ĩ": 3366,
      "éļıæĹ¶": 3367,
      "å¿Ĩ": 3368,
      "åĬ¨æĢģ": 3369,
      "'ve": 3370,
      "ĊĊĠĠĠ": 3371,
      "Ġapplic": 3372,
      "ä»¥ä¸Ĭ": 3373,
      "Ġwebsite": 3374,
      "æīĭæľº": 3375,
      "Yes": 3376,
      "viron": 3377,
      "Ġmethod": 3378,
      "Ġcompany": 3379,
      "RO": 3380,
      "åİŁåĽł": 3381,
      "ä¹Łåı¯ä»¥": 3382,
      "sqrt": 3383,
      "è§Ħæ¨¡": 3384,
      "ps": 3385,
      "Ġwrit": 3386,
      "äºĳè®¡ç®Ĺ": 3387,
      "Ġoutput": 3388,
      "Ġdat": 3389,
      "Ġgive": 3390,
      "ets": 3391,
      "Ġimpro": 3392,
      "\\),": 3393,
      "å¼ĢæĶ¾": 3394,
      "æ³ķè§Ħ": 3395,
      "æĻ®": 3396,
      "æĮīçħ§": 3397,
      "18": 3398,
      "éĹ»": 3399,
      "æģ¢å¤į": 3400,
      "Ġtem": 3401,
      "è°¢": 3402,
      "æľĢç»Ī": 3403,
      "Ġ//": 3404,
      "Here": 3405,
      "æĶ¹è¿Ľ": 3406,
      "Ġinf": 3407,
      "cdot": 3408,
      "æĹ¥æľŁ": 3409,
      "ĠJava": 3410,
      "å®ĩ": 3411,
      "For": 3412,
      "Ġjo": 3413,
      "æĦıè¯Ĩ": 3414,
      "ä»¥ç¡®ä¿Ŀ": 3415,
      "ien": 3416,
      "æĽ´å¤ļçļĦ": 3417,
      "æļĸ": 3418,
      "ream": 3419,
      "++": 3420,
      "AR": 3421,
      "21": 3422,
      "éĻĲäºİ": 3423,
      "æĬĢå·§": 3424,
      "åĨ°": 3425,
      "å¹³åĿĩ": 3426,
      "çļĦè¿ĩç¨ĭ": 3427,
      "ä¸įè¦ģ": 3428,
      "Ġreferring": 3429,
      "ç¦ı": 3430,
      "æĻļ": 3431,
      "å°ıæĺİ": 3432,
      "å¤ªéĺ³": 3433,
      "ä¸įåı¯": 3434,
      "åĮ»çĶŁ": 3435,
      "Ġsmall": 3436,
      "æ¯Ĵ": 3437,
      "ç©¿": 3438,
      "Ġmeans": 3439,
      "ML": 3440,
      "ze": 3441,
      "äº«åıĹ": 3442,
      "çīĽ": 3443,
      "çļĦæ¦Ĥ": 3444,
      "ines": 3445,
      "Ġä½¿çĶ¨": 3446,
      "How": 3447,
      "äººåĳĺ": 3448,
      "åĿļ": 3449,
      "ĠTo": 3450,
      "èĦļ": 3451,
      "Ġglob": 3452,
      "æ£Ģæµĭ": 3453,
      "èµĸ": 3454,
      "ode": 3455,
      "å¼ºè°ĥ": 3456,
      "æ¨¡åŀĭçļĦ": 3457,
      "('": 3458,
      "vie": 3459,
      "ç£": 3460,
      "Ġbr": 3461,
      "Ġsumm": 3462,
      "Ġchat": 3463,
      "é±": 3464,
      "ä¹łæĥ¯": 3465,
      "ellig": 3466,
      "äº²": 3467,
      "Ġparticular": 3468,
      "çĹĩ": 3469,
      "Ġins": 3470,
      "æķ´ä¸ª": 3471,
      "çļĦåŃ¦ä¹ł": 3472,
      "çļĦæĦı": 3473,
      "Ġmark": 3474,
      "è¿Ļä¸įä»ħ": 3475,
      "æĬ¥åĳĬ": 3476,
      "ploye": 3477,
      "éħ¸": 3478,
      "çļĦéľĢæ±Ĥ": 3479,
      "etwor": 3480,
      "é©¾": 3481,
      "Ch": 3482,
      "çļĦæı": 3483,
      "Ġåľ¨": 3484,
      "è¸": 3485,
      "ety": 3486,
      "ç»¿èī²": 3487,
      "Ġexpression": 3488,
      "read": 3489,
      "Ġcharacters": 3490,
      "èµ°": 3491,
      "Ġstory": 3492,
      "åĵįåºĶ": 3493,
      "è¡ĮåĬ¨": 3494,
      ")^": 3495,
      "ĠPro": 3496,
      "Ġ18": 3497,
      "Ġbetter": 3498,
      "åįģ": 3499,
      "Ġdevelopment": 3500,
      "ä»¥ä¸ĭæĺ¯ä¸Ģä¸ª": 3501,
      "æĿŁ": 3502,
      "èĲ¥éĶĢ": 3503,
      "æľīæķĪåľ°": 3504,
      "é±¼": 3505,
      "äºĴèģĶç½ĳ": 3506,
      "æĭħ": 3507,
      "æ·±åº¦åŃ¦ä¹ł": 3508,
      "Ġprovided": 3509,
      "éĺ²æŃ¢": 3510,
      "Ġ11": 3511,
      "æĸĩç«ł": 3512,
      "çĬ¶åĨµ": 3513,
      "å¢ŀéķ¿": 3514,
      "Ġorder": 3515,
      "ç»ĦæĪĲ": 3516,
      "éĺµ": 3517,
      "Ġmed": 3518,
      "éĽ¨": 3519,
      "éĢīé¡¹": 3520,
      "Ġenviron": 3521,
      "oh": 3522,
      "å»ºè®¾": 3523,
      "Ġadvice": 3524,
      "Ġend": 3525,
      "íķ": 3526,
      "Ġfam": 3527,
      "Ġfin": 3528,
      "Ġusers": 3529,
      "ç»ĻæĪĳ": 3530,
      "verse": 3531,
      "Ġelements": 3532,
      "ĠEx": 3533,
      "----": 3534,
      "éĿł": 3535,
      "è¯·æ±Ĥ": 3536,
      "rase": 3537,
      "æ±½": 3538,
      "æĢ»ä¹ĭ": 3539,
      "å®ŀæĹ¶": 3540,
      "ives": 3541,
      "åħģ": 3542,
      "æıĲåĩº": 3543,
      "çŃĳ": 3544,
      "Ġconst": 3545,
      "ius": 3546,
      "å¯Ĩçłģ": 3547,
      "æ´Ĺ": 3548,
      "Ġconf": 3549,
      "Ġshare": 3550,
      "Therefore": 3551,
      "24": 3552,
      "æ£®": 3553,
      "commend": 3554,
      "pi": 3555,
      "ä¾Ŀèµĸ": 3556,
      "çĩ": 3557,
      "çĽ¸åĲĮ": 3558,
      "pen": 3559,
      "å®Ļ": 3560,
      "çīĪæľ¬": 3561,
      "Ġarr": 3562,
      "åħ¬åħ±": 3563,
      "è§Ī": 3564,
      "åĬĽéĩı": 3565,
      "Ġident": 3566,
      "çĨŁ": 3567,
      "æ¶²": 3568,
      "åĳ¼": 3569,
      "æł¼å¼ı": 3570,
      "inu": 3571,
      "çļĦåħ·ä½ĵ": 3572,
      "åĲĪéĢĤçļĦ": 3573,
      "çİĭ": 3574,
      "å¤§æķ°æį®": 3575,
      "Ġvis": 3576,
      "åľĨ": 3577,
      "æĢĿèĢĥ": 3578,
      "æĽ²": 3579,
      "ç§ĭ": 3580,
      "Ġtypically": 3581,
      "åħģè®¸": 3582,
      "çĮ«": 3583,
      "Ġcomplex": 3584,
      "æħ§": 3585,
      "Ġmaking": 3586,
      "ional": 3587,
      "ward": 3588,
      "Ġsecon": 3589,
      "Ġrecommend": 3590,
      "å®ĩå®Ļ": 3591,
      "//": 3592,
      "æŃ£åľ¨": 3593,
      "gin": 3594,
      "åĪĨéħį": 3595,
      "è·Ŀç¦»": 3596,
      "ä¸įèĥ½": 3597,
      "Ġcommun": 3598,
      "åĿĢ": 3599,
      "å¾Ģå¾Ģ": 3600,
      ":**": 3601,
      "ä¼´": 3602,
      "ries": 3603,
      "io": 3604,
      "éĽĨåĽ¢": 3605,
      "ä¸Ńæĸĩ": 3606,
      "ember": 3607,
      "Ġorig": 3608,
      "å¼Ĥå¸¸": 3609,
      "ways": 3610,
      "åŁ¹åħ»": 3611,
      "Ġinclude": 3612,
      "èľ": 3613,
      "Ġsug": 3614,
      "åĭĩ": 3615,
      "Ġtrying": 3616,
      "Ġmessage": 3617,
      "ror": 3618,
      "ä½Ļ": 3619,
      "Ġsym": 3620,
      "æ··": 3621,
      "åģľ": 3622,
      "çī©è´¨": 3623,
      "Ġmach": 3624,
      "ergy": 3625,
      "ç²ī": 3626,
      "Ġdid": 3627,
      "çļĦæķħäºĭ": 3628,
      "Ġevery": 3629,
      "åĽ¢éĺŁæĪĲåĳĺ": 3630,
      "ãģĹ": 3631,
      "å±ķçİ°": 3632,
      "éĢĲæ¸Ĳ": 3633,
      "Ġsing": 3634,
      "ious": 3635,
      "çļĦç¬": 3636,
      "Ġallow": 3637,
      "Ġtell": 3638,
      "ĠUnited": 3639,
      "ç¤¼": 3640,
      "Ġsame": 3641,
      "ç®±": 3642,
      "ipp": 3643,
      "å»ºçŃĳ": 3644,
      "èĢĲ": 3645,
      "çļĦåħ³éĶ®": 3646,
      "æĦıä¹ī": 3647,
      "çľĭåĪ°": 3648,
      "èĩªçĦ¶è¯Ńè¨Ģ": 3649,
      "Ġcustom": 3650,
      "Ġprime": 3651,
      "atform": 3652,
      "ential": 3653,
      "å¦Ĥæŀľä½łæľī": 3654,
      "Ġservice": 3655,
      "urity": 3656,
      "ilities": 3657,
      "Ġsee": 3658,
      "èŃ": 3659,
      "å¤©æ°Ķ": 3660,
      "éĥ½èĥ½": 3661,
      "Ġbec": 3662,
      "é¥®é£Ł": 3663,
      "æ¶Īè´¹èĢħ": 3664,
      "erv": 3665,
      "Ġfeature": 3666,
      "ä½łèĥ½": 3667,
      "Ġupd": 3668,
      "çļĦä¸»è¦ģ": 3669,
      "å®ŀæĸ½": 3670,
      "ä»į": 3671,
      "Ġmay": 3672,
      "çŁ¥éģĵ": 3673,
      "è§£åĨ³éĹ®é¢ĺ": 3674,
      "ale": 3675,
      "Ġterms": 3676,
      "å®ĺæĸ¹": 3677,
      "éĢĶ": 3678,
      "çľł": 3679,
      "æĹı": 3680,
      "éľ²": 3681,
      "å¥ĸ": 3682,
      "Ġcontain": 3683,
      "çĶ¨çļĦ": 3684,
      "åĪĨéĴŁ": 3685,
      "ä¸Ģå®ļ": 3686,
      "Ġfl": 3687,
      "æ¸©åº¦": 3688,
      "ai": 3689,
      "Ġright": 3690,
      "¹ģ": 3691,
      "æĶ»": 3692,
      "ãĤĴ": 3693,
      "åĪĽæĦı": 3694,
      "è¿Ļå°Ĩ": 3695,
      "åı¯ä»¥æıĲä¾Ľ": 3696,
      "æľºåĻ¨äºº": 3697,
      "Ġwid": 3698,
      "å¦Ĥä¸ĭ": 3699,
      "Ġstud": 3700,
      "ĠSh": 3701,
      "åĪ¤æĸŃ": 3702,
      "æīįèĥ½": 3703,
      "éĽ¶": 3704,
      "é©¾é©¶": 3705,
      "Ġcat": 3706,
      "ç¥ŀç»ı": 3707,
      "ä»Ĭ": 3708,
      "air": 3709,
      "çļĦæ·±": 3710,
      "åķĨä¸ļ": 3711,
      "\".": 3712,
      "$,": 3713,
      "æĪĳä¼ļ": 3714,
      "ç±į": 3715,
      "Ġsky": 3716,
      "ä»¥ä¾¿": 3717,
      "è¡¥": 3718,
      "èª": 3719,
      "çĲĨè§£åĴĮ": 3720,
      "çĻ»": 3721,
      "å¤įæĿĤçļĦ": 3722,
      "æī©å±ķ": 3723,
      "Ġav": 3724,
      "æĪĳçļĦ": 3725,
      "å½ĵçĦ¶åı¯ä»¥": 3726,
      "å·®å¼Ĥ": 3727,
      "Ġstor": 3728,
      "æ±ĩ": 3729,
      "áº": 3730,
      "è¾ħ": 3731,
      "åĽ°éļ¾": 3732,
      "Ġfile": 3733,
      "è¶³å¤Ł": 3734,
      "Ġcle": 3735,
      "ivid": 3736,
      "å°±æĺ¯": 3737,
      "yn": 3738,
      "ç»ĥä¹ł": 3739,
      "åĨ³äºİ": 3740,
      "åıĸåĨ³äºİ": 3741,
      "æĦŁåħ´è¶£": 3742,
      "åįĬ": 3743,
      "æĽ¿": 3744,
      "ä¿¡åı·": 3745,
      "ç»ıåİĨ": 3746,
      "isp": 3747,
      "èī¾": 3748,
      "13": 3749,
      "åĮĸçļĦ": 3750,
      "Ġcar": 3751,
      "Of": 3752,
      "æ°§": 3753,
      "å·¥ç¨ĭ": 3754,
      "ä¸įè¿ĩ": 3755,
      "Ġcost": 3756,
      "count": 3757,
      "æħ¢": 3758,
      "Ġcour": 3759,
      "åĮºåŁŁ": 3760,
      "çĽ¸å¯¹": 3761,
      "Ġbusinesses": 3762,
      "éĤ®ä»¶": 3763,
      "AT": 3764,
      "Â°": 3765,
      "Ġroot": 3766,
      "rix": 3767,
      "Ġuser": 3768,
      "é¾Ħ": 3769,
      "atic": 3770,
      "Ġ50": 3771,
      "ç³»ç»ŁçļĦ": 3772,
      "æŁ¥çľĭ": 3773,
      "ä¸īä¸ª": 3774,
      "Ġanal": 3775,
      "è¯´æĺİ": 3776,
      "åĵĪ": 3777,
      "èĢĹ": 3778,
      "çļĦæ¨¡": 3779,
      "ithm": 3780,
      "99": 3781,
      "Ġens": 3782,
      "Ġatt": 3783,
      "Ġelement": 3784,
      "Ġthree": 3785,
      "çļĦç¾": 3786,
      "Ġcult": 3787,
      "æŁĲä¸ª": 3788,
      "Ġproviding": 3789,
      "æ¯Ķè¾ĥ": 3790,
      "Ġintern": 3791,
      "ä¼łè¾ĵ": 3792,
      "å¸¸è§ģçļĦ": 3793,
      "ively": 3794,
      "Ġ\\(\\": 3795,
      "è§Ĩè§ī": 3796,
      "utions": 3797,
      "æĢģåº¦": 3798,
      "Ġproject": 3799,
      "ull": 3800,
      "èĩªçĶ±": 3801,
      "çº¸": 3802,
      "éĺ¶æ®µ": 3803,
      "åıįæĺł": 3804,
      "èįī": 3805,
      "Ġmu": 3806,
      "sh": 3807,
      "çºª": 3808,
      "Th": 3809,
      "Ġsuggest": 3810,
      "itle": 3811,
      "ç½²": 3812,
      "éĢļè¿ĩä¸Ĭè¿°": 3813,
      "åħ±äº«": 3814,
      "æĿ¥æºĲ": 3815,
      "ä¼ĺåĬ¿": 3816,
      "åİŁçĲĨ": 3817,
      "åŃ¦ä¹łåĴĮ": 3818,
      "å¤ı": 3819,
      "ãģ¾": 3820,
      "elligence": 3821,
      "çĭ¬çī¹çļĦ": 3822,
      "ëĭ": 3823,
      "åĢ¾": 3824,
      "ivers": 3825,
      "åĨħåŃĺ": 3826,
      "å®¹æĺĵ": 3827,
      "Ġ14": 3828,
      "Ġenergy": 3829,
      "å¨ģ": 3830,
      "Ġprom": 3831,
      "Ġidea": 3832,
      "å®īåħ¨æĢ§": 3833,
      "ructure": 3834,
      "Ġsides": 3835,
      "çģ¯": 3836,
      "],": 3837,
      "result": 3838,
      "Ġmil": 3839,
      "æĮĩçļĦæĺ¯": 3840,
      "åĮħæĭ¬ä½Ĩä¸į": 3841,
      "åĮħæĭ¬ä½Ĩä¸įéĻĲäºİ": 3842,
      "ves": 3843,
      "å®ŀä¾ĭ": 3844,
      "Ġtrue": 3845,
      "ä»ĸçļĦ": 3846,
      "ä½ĵçļĦ": 3847,
      "Ġfiel": 3848,
      "ense": 3849,
      "ote": 3850,
      "`ï¼Į": 3851,
      "èĨ": 3852,
      "Ġwere": 3853,
      "åĽŀçŃĶ": 3854,
      "ç¬Ķ": 3855,
      "ont": 3856,
      "ĠTh": 3857,
      "ç»ĦåĲĪ": 3858,
      "ht": 3859,
      "é¥°": 3860,
      "other": 3861,
      "ÙĦ": 3862,
      "æĸĩåŃ¦": 3863,
      "ximately": 3864,
      "è´¡": 3865,
      "æ¯ıä¸ªäºº": 3866,
      "Ġimportant": 3867,
      "Ġmillion": 3868,
      "ç»ĺ": 3869,
      "è·¯å¾Ħ": 3870,
      "oogle": 3871,
      "Ġprogramming": 3872,
      "60": 3873,
      "sum": 3874,
      "ä¸Ģæ®µ": 3875,
      "æľīä¸Ģä¸ª": 3876,
      "åħ¬å¼ı": 3877,
      "æĹłè®ºæĺ¯": 3878,
      "è®¢": 3879,
      "æĬĹ": 3880,
      "è§Ĵåº¦": 3881,
      "Ġenvironment": 3882,
      "ID": 3883,
      "Ģæľī": 3884,
      "åĨĮ": 3885,
      "Ġremain": 3886,
      "Ġplatform": 3887,
      "son": 3888,
      "æľĢå¤§": 3889,
      "Ġopt": 3890,
      "çļĦåŁºæľ¬": 3891,
      "èĩ³åħ³": 3892,
      "èį¯çī©": 3893,
      "arm": 3894,
      "æıĴ": 3895,
      "ibr": 3896,
      "è´¡çĮ®": 3897,
      "Ġafter": 3898,
      "ohn": 3899,
      "æ±ł": 3900,
      "Ġback": 3901,
      "åįļ": 3902,
      "Ġseries": 3903,
      "time": 3904,
      "ĠSp": 3905,
      "ering": 3906,
      "Ġnetwor": 3907,
      "uss": 3908,
      "Ġdescrib": 3909,
      "é«ĺçļĦ": 3910,
      "ĠYou": 3911,
      "alse": 3912,
      "ä»ĸä»¬çļĦ": 3913,
      "åĮ¹": 3914,
      "ty": 3915,
      "æ¥": 3916,
      "è¯ļ": 3917,
      "æĿĳ": 3918,
      "æľ¨": 3919,
      "çļĦæ°´": 3920,
      "æķĪçİĩåĴĮ": 3921,
      "å»¶": 3922,
      "aves": 3923,
      "perature": 3924,
      "æĪĳæĥ³": 3925,
      "ything": 3926,
      "ä¹İ": 3927,
      "æĶ¹åĸĦ": 3928,
      "éĵ¶è¡Į": 3929,
      "ï¼ļâĢľ": 3930,
      "çŁ©": 3931,
      "åıĺå¾Ĺ": 3932,
      "å®½": 3933,
      "åı¯ä»¥å¸®åĬ©ä½ł": 3934,
      "éģįåİĨ": 3935,
      "èĢĮä¸įæĺ¯": 3936,
      "Ġsn": 3937,
      "ank": 3938,
      "æ´ŀ": 3939,
      "è¿Ļæĺ¯ä¸Ģä¸ª": 3940,
      "¡çľł": 3941,
      "Ġè¾ĵåĩº": 3942,
      "____": 3943,
      "äº¬": 3944,
      "Do": 3945,
      "Ġsur": 3946,
      "Ġalways": 3947,
      "è±Ĩ": 3948,
      "Ġwater": 3949,
      "stit": 3950,
      "éĿĴ": 3951,
      "Ġlim": 3952,
      "Ġhig": 3953,
      "`,": 3954,
      "ma": 3955,
      "Ġpossible": 3956,
      "Ġcir": 3957,
      "Ġstatement": 3958,
      "Ġmachine": 3959,
      "Ġinteger": 3960,
      "èĵĿ": 3961,
      "ĠAs": 3962,
      "Ġhour": 3963,
      "ä¸°å¯ĮçļĦ": 3964,
      "Ġinterested": 3965,
      "±ä¹Ĳ": 3966,
      "æ³¡": 3967,
      "åįĥ": 3968,
      "ç»¼åĲĪ": 3969,
      "ãĢĤâĢĿ": 3970,
      "åįķè¯į": 3971,
      "Ġcity": 3972,
      "let": 3973,
      "åĨĽ": 3974,
      "Ġinde": 3975,
      "Ġdeterm": 3976,
      "å¯»æ±Ĥ": 3977,
      "è¿Ľåħ¥": 3978,
      "Ġbeaut": 3979,
      "Ġair": 3980,
      "Ð»": 3981,
      "Ġdi": 3982,
      "Ġhealth": 3983,
      "é¡»": 3984,
      "ness": 3985,
      "ç¢³": 3986,
      "å°ģ": 3987,
      "çļĦæ´": 3988,
      "`.": 3989,
      "æĢİ": 3990,
      "ä½įäºİ": 3991,
      "æ±½è½¦": 3992,
      "çİ¯å¢ĥä¸Ń": 3993,
      "åĬĽåĴĮ": 3994,
      "å½ĵåľ°": 3995,
      "Ġobject": 3996,
      "atural": 3997,
      "å®Įæķ´": 3998,
      "ĠFr": 3999,
      "çĶ³": 4000,
      "Ġvary": 4001,
      "Ġcontent": 4002,
      "Ġbit": 4003,
      "Ġour": 4004,
      "çļĦçĥ": 4005,
      "Ġunique": 4006,
      "Ġwithout": 4007,
      "åĴĮè°": 4008,
      "è¯ŃéŁ³": 4009,
      "åĪł": 4010,
      "ä¼¦çĲĨ": 4011,
      "ource": 4012,
      "åĿı": 4013,
      "ave": 4014,
      "çļĦæĸ¹å¼ı": 4015,
      "Ġbeing": 4016,
      "Ġcase": 4017,
      "æ¯ıä¸Ģ": 4018,
      "Ġsal": 4019,
      "èĤ¤": 4020,
      "Ġbel": 4021,
      "èĪĴ": 4022,
      "Ġsecurity": 4023,
      "ç¹ģ": 4024,
      "ually": 4025,
      "éĩįæĸ°": 4026,
      "çŃīé¢ĨåŁŁ": 4027,
      "é¢ĺçĽ®": 4028,
      "çļĦæ¯ı": 4029,
      "çļĦä½¿çĶ¨": 4030,
      "éĿ©": 4031,
      "ĠSe": 4032,
      "ãģ«": 4033,
      "Ġscript": 4034,
      "éĤ£äºĽ": 4035,
      "Ġmon": 4036,
      "æ®Ĭ": 4037,
      "èº«ä»½": 4038,
      "Ġap": 4039,
      "ĠRe": 4040,
      "':": 4041,
      "çĶµèĦĳ": 4042,
      "è§Ĥå¯Ł": 4043,
      "è¿ĻæĦıåĳ³çĿĢ": 4044,
      "æ¡Ĩæŀ¶": 4045,
      "çļĦç¼ĸ": 4046,
      "Ġincludes": 4047,
      "åı³": 4048,
      "Ġlog": 4049,
      "à¤": 4050,
      "çļĦç¾İ": 4051,
      "Ġer": 4052,
      "Ġimp": 4053,
      "Ġ13": 4054,
      "çľģ": 4055,
      "ner": 4056,
      "ä¹¦ç±į": 4057,
      "çī¹æ®Ĭ": 4058,
      "åıĤåĬł": 4059,
      "Ġdate": 4060,
      "åıĳå¸ĥ": 4061,
      "çļĦæīĢæľī": 4062,
      "è¯Ĭ": 4063,
      "Ġpublic": 4064,
      "éĥ¨ç½²": 4065,
      "ross": 4066,
      "ãģĦ": 4067,
      "åĪłéĻ¤": 4068,
      "Ġ%": 4069,
      "ization": 4070,
      "ä¼łæĴŃ": 4071,
      "Ġmaxim": 4072,
      "reate": 4073,
      "box": 4074,
      "çĳ": 4075,
      "Ġdown": 4076,
      "èŃ¦": 4077,
      "Ġcourse": 4078,
      "sole": 4079,
      "ĠåĴĮ": 4080,
      "åº§": 4081,
      "ä»¥ä¸ĭåĩł": 4082,
      "ĠMy": 4083,
      "ĠQ": 4084,
      "ï¼īï¼ļ": 4085,
      "éĢļä¿¡": 4086,
      "Re": 4087,
      "è½®": 4088,
      "ä¸Ĭä¸ĭ": 4089,
      "ç¥Ŀ": 4090,
      "::": 4091,
      "gor": 4092,
      "èĸ": 4093,
      "å¹´é¾Ħ": 4094,
      "Ġinvol": 4095,
      "Ġtemperature": 4096,
      "ä¿¡ä»»": 4097,
      "æıĲéĹ®": 4098,
      "Ġprof": 4099,
      "ier": 4100,
      "è®°å¿Ĩ": 4101,
      "æ£®æŀĹ": 4102,
      "ä¸įä»ħèĥ½å¤Ł": 4103,
      "æĤ£èĢħ": 4104,
      "ger": 4105,
      "ç»Ļå®ļ": 4106,
      "çļĦå°ı": 4107,
      "è¯Ńåı¥": 4108,
      "ä½łéľĢè¦ģ": 4109,
      "éģµå®Ī": 4110,
      "Ġrole": 4111,
      "åŃĹåħ¸": 4112,
      "Ġreleased": 4113,
      "Ex": 4114,
      "bin": 4115,
      "ECT": 4116,
      "oy": 4117,
      "æ¿Ģåıĳ": 4118,
      "çĶļ": 4119,
      "Ġconvert": 4120,
      "Ġcommand": 4121,
      "åĮ¹éħį": 4122,
      "ployees": 4123,
      "çļĦçŁ¥": 4124,
      "éº": 4125,
      "é¦Ĩ": 4126,
      "å¡ĳ": 4127,
      "Ġpositive": 4128,
      "ON": 4129,
      "Ġconcept": 4130,
      "ĠEarth": 4131,
      "Ġfriendly": 4132,
      "åı¯éĿł": 4133,
      "å°ıæĹ¶": 4134,
      "åºĶçĶ¨ç¨ĭåºı": 4135,
      "è¿Ļæ®µ": 4136,
      "Ġindivid": 4137,
      "ws": 4138,
      "Ġnamed": 4139,
      "Ġplan": 4140,
      "Ġsort": 4141,
      "Ġdoc": 4142,
      "è§ĤçĤ¹": 4143,
      "ãģ§": 4144,
      "Ġiss": 4145,
      "ä¸ĭçļĦ": 4146,
      "è®¾æĸ½": 4147,
      "åĴĮè°Ĳ": 4148,
      "ç©ºæ°Ķ": 4149,
      "æĳ©": 4150,
      "åĬ³": 4151,
      "è¯·æıĲä¾Ľ": 4152,
      "Ġsources": 4153,
      "ĠCom": 4154,
      "å¤įæĿĤåº¦": 4155,
      "apt": 4156,
      "Ġsecond": 4157,
      "æĶ»åĩ»": 4158,
      "')": 4159,
      "Ġown": 4160,
      "Ġmeaning": 4161,
      "éĢĢ": 4162,
      "ä½Ľ": 4163,
      "è¡£": 4164,
      "cho": 4165,
      "æľīä»Ģä¹Ī": 4166,
      "æ²³": 4167,
      "çĽ¸åºĶ": 4168,
      "èĶ": 4169,
      "çļĦåĢ¼": 4170,
      "Ġeffect": 4171,
      "LECT": 4172,
      "set": 4173,
      "ogn": 4174,
      "HT": 4175,
      "Ġ```": 4176,
      "åĲĥ": 4177,
      "æĥħç»ª": 4178,
      "éķĩ": 4179,
      "ocus": 4180,
      "éĢĤå½ĵ": 4181,
      "å¿ħé¡»": 4182,
      "çĶļèĩ³": 4183,
      "åĽ¾çīĩ": 4184,
      "çļĦæĮĩ": 4185,
      "çļĦåŁºç¡Ģ": 4186,
      "Ġphys": 4187,
      "ç»Ŀ": 4188,
      "ality": 4189,
      "æīĵå¼Ģ": 4190,
      "Ġtre": 4191,
      "Ġbecause": 4192,
      "irt": 4193,
      "çļĦæĥħåĨµä¸ĭ": 4194,
      "Ġpat": 4195,
      "Ġ200": 4196,
      "åĮĸåŃ¦": 4197,
      "åģıå¥½": 4198,
      "éĹŃ": 4199,
      "åľ°åĿĢ": 4200,
      "iter": 4201,
      "aging": 4202,
      "å¦Ĥä½ķåľ¨": 4203,
      "Ġtake": 4204,
      "åĲįä¸º": 4205,
      "åį´": 4206,
      "åĪĨåĪ«": 4207,
      "çļĦçľ": 4208,
      "Ġplace": 4209,
      "æľĢè¿ĳ": 4210,
      "Ġ$\\": 4211,
      "Ã¡": 4212,
      "number": 4213,
      "Ġmaximum": 4214,
      "ç¯ĩ": 4215,
      "rue": 4216,
      "ĠInt": 4217,
      "Ġ24": 4218,
      "èĥŀ": 4219,
      "case": 4220,
      "Ġdeep": 4221,
      "ROM": 4222,
      "sc": 4223,
      "Ġincre": 4224,
      "ĠWe": 4225,
      "éĥ½ä¼ļ": 4226,
      "ç²¾ç¥ŀ": 4227,
      "å©": 4228,
      "åįıä½ľ": 4229,
      "åı¯ä»¥æĺ¯": 4230,
      "çŃīå¤ļä¸ª": 4231,
      "çĽĳæµĭ": 4232,
      "åĴĮæľįåĬ¡": 4233,
      "Ġdue": 4234,
      "Ġear": 4235,
      "è¿ĲèĲ¥": 4236,
      "of": 4237,
      "æ±¡": 4238,
      "é«ĺåº¦": 4239,
      "æī¹": 4240,
      "çĸ«": 4241,
      "Ġindividual": 4242,
      "èĩªçĦ¶è¯Ńè¨Ģå¤ĦçĲĨ": 4243,
      "ele": 4244,
      "sive": 4245,
      "ä¹Łèĥ½": 4246,
      "æĻºæħ§": 4247,
      "sort": 4248,
      "af": 4249,
      "åħ¬åı¸çļĦ": 4250,
      "çĶ¨æĿ¥": 4251,
      "çī¹æĢ§": 4252,
      "èļ": 4253,
      "Ġexact": 4254,
      "åŃĹæ¯į": 4255,
      "place": 4256,
      "å¾Īå¤ļ": 4257,
      "æĽ´åĩĨç¡®": 4258,
      "æľīæīĢå¸®åĬ©": 4259,
      "ä¹ĭåīį": 4260,
      "Ġtakes": 4261,
      "ral": 4262,
      "å®ĥä»¬çļĦ": 4263,
      "çİ°åľ¨": 4264,
      "å¹ķ": 4265,
      "Ġduring": 4266,
      "ç¼ĸè¾ĳ": 4267,
      "gre": 4268,
      "ä»¿": 4269,
      "æľīä¸Ģ": 4270,
      "ters": 4271,
      "Ġsince": 4272,
      "ention": 4273,
      "æĬ½": 4274,
      "é¡µéĿ¢": 4275,
      "æ½ľåľ¨": 4276,
      "è¯Ńæ³ķ": 4277,
      "Ġfocus": 4278,
      "æĢĿç»´": 4279,
      "Ġlocated": 4280,
      "!\"": 4281,
      "çº³": 4282,
      "çĽ¸åħ³çļĦ": 4283,
      "é¡¶": 4284,
      "Ġhelpful": 4285,
      "Ġfactor": 4286,
      "angle": 4287,
      "çĽ´åĪ°": 4288,
      "ĠStates": 4289,
      "æ¹¿": 4290,
      "æį·": 4291,
      "éĵģ": 4292,
      "è´Łè´£": 4293,
      "iction": 4294,
      "Ġnatural": 4295,
      "Ġorgan": 4296,
      "å¨±ä¹Ĳ": 4297,
      "ches": 4298,
      "Ġleft": 4299,
      "Ġblue": 4300,
      "ok": 4301,
      "é»ĺ": 4302,
      "Ġmade": 4303,
      "Ġprovides": 4304,
      "pose": 4305,
      "çļĦçģ": 4306,
      "éķľ": 4307,
      "åĿĲ": 4308,
      "æĿ¥å®ŀçİ°": 4309,
      "indows": 4310,
      "abilities": 4311,
      "è¯·æ³¨æĦı": 4312,
      "Ġteam": 4313,
      "éĢłæĪĲ": 4314,
      "çļĦèĥ½åĬĽ": 4315,
      "éĨĴ": 4316,
      "çĶ¨æĪ·çļĦ": 4317,
      "æĹĭ": 4318,
      "race": 4319,
      "Ġphrase": 4320,
      "17": 4321,
      "å¯¹æĸ¹": 4322,
      "Ġage": 4323,
      "ĠAnd": 4324,
      "çļĦé£İéĻ©": 4325,
      "Ġaut": 4326,
      "åį«": 4327,
      "ä¸Ģèĩ´": 4328,
      "ç»Ĩèĥŀ": 4329,
      "æĬĢæľ¯çļĦåıĳå±ķ": 4330,
      "çĶŁæĪĲä¸Ģä¸ª": 4331,
      "Ġdivis": 4332,
      "å°¤åħ¶æĺ¯": 4333,
      "çŃīæĸ¹éĿ¢": 4334,
      "Ġasking": 4335,
      "çĽ®çļĦ": 4336,
      "ç¬¬äºĮ": 4337,
      "èĪĴéĢĤ": 4338,
      "æĬĺ": 4339,
      "Ġrecent": 4340,
      "åįıè®®": 4341,
      "è¾Ĩ": 4342,
      "å·¨": 4343,
      "åīĤ": 4344,
      "the": 4345,
      "æķ°çļĦ": 4346,
      "Ġheart": 4347,
      "value": 4348,
      "éĿ¢ä¸´": 4349,
      "å®ŀéĻħä¸Ĭ": 4350,
      "æĿ¯": 4351,
      "dd": 4352,
      "ĠX": 4353,
      "è´µ": 4354,
      "è¯ģæĺİ": 4355,
      "å±ı": 4356,
      "new": 4357,
      "ody": 4358,
      "éģµå¾ª": 4359,
      "Ġglobal": 4360,
      "Ġdepending": 4361,
      "åĩĢ": 4362,
      "å·¦": 4363,
      "ĠØ": 4364,
      "æĽ´åħ·ä½ĵçļĦ": 4365,
      "å¸®åĬ©æĤ¨": 4366,
      "çĽ¸äºĴ": 4367,
      "Ġreturns": 4368,
      "å¸ĮæľĽè¿ĻäºĽå»ºè®®": 4369,
      "Ġimprove": 4370,
      "Ġmuch": 4371,
      "ä»ĸäºº": 4372,
      "å¼¹": 4373,
      "45": 4374,
      "åįķä½į": 4375,
      "çĦ¦": 4376,
      "åĪĹè¡¨ä¸Ń": 4377,
      "`ãĢĤ": 4378,
      "conom": 4379,
      "èĥ½éĩı": 4380,
      "Ġcalled": 4381,
      "Ġrate": 4382,
      "é¢Ħç®Ĺ": 4383,
      "èĩ³åħ³éĩįè¦ģ": 4384,
      "acc": 4385,
      "ç»ĵæĿŁ": 4386,
      "åı¯ä»¥èĢĥèĻĳ": 4387,
      "ç»ĨèĬĤ": 4388,
      "Ġve": 4389,
      "å¯¹ä½ł": 4390,
      "ĠThese": 4391,
      "è¿ĩåº¦": 4392,
      "ified": 4393,
      "è¯Ħä»·": 4394,
      "æķ°æį®éĽĨ": 4395,
      "é«ĺè´¨éĩı": 4396,
      "èŀįåĲĪ": 4397,
      "åİŁåĪĻ": 4398,
      "Ġapproximately": 4399,
      "Ġrepresent": 4400,
      "ificial": 4401,
      "ason": 4402,
      "æĸ¹ç¨ĭ": 4403,
      "Ġsocial": 4404,
      "Ġfig": 4405,
      "SELECT": 4406,
      "####": 4407,
      "äººæ°ĳ": 4408,
      "ãĢĳ": 4409,
      "hest": 4410,
      "ãĢĲ": 4411,
      "Ġdigital": 4412,
      "ä»¥ä¸ĭåĩłä¸ªæĸ¹éĿ¢": 4413,
      "Ġclo": 4414,
      "å°Ĩåħ¶": 4415,
      "çļĦåĨħå®¹": 4416,
      "æı¡": 4417,
      "random": 4418,
      "å·ŀ": 4419,
      "è´Ńçī©": 4420,
      "hou": 4421,
      "éĥ¨éĹ¨": 4422,
      "Ġsnipp": 4423,
      "tract": 4424,
      "çİ°è±¡": 4425,
      "Ġneeds": 4426,
      "æķ°åĪĹ": 4427,
      "Ġgame": 4428,
      "Ġtri": 4429,
      "è´´": 4430,
      "çĭ¬ç«ĭ": 4431,
      "å¿ħè¦ģçļĦ": 4432,
      "èĪŀ": 4433,
      "æ¸ħæ´ģ": 4434,
      "è±¡å¾ģ": 4435,
      "è½»æĿ¾": 4436,
      "é¸¡": 4437,
      "åĨ²çªģ": 4438,
      "Ġgeneral": 4439,
      "Ġblo": 4440,
      "çļĦæĦŁ": 4441,
      "åĨħçļĦ": 4442,
      "Ñĥ": 4443,
      "ins": 4444,
      "çļĦçŁ¥è¯Ĩ": 4445,
      "æ¨¡åĿĹ": 4446,
      "éĻ¤äºĨ": 4447,
      "è¦Ĩ": 4448,
      "yle": 4449,
      "Ġintelligence": 4450,
      "åĨĻä½ľ": 4451,
      "Ġed": 4452,
      "Ġrad": 4453,
      "cing": 4454,
      "Please": 4455,
      "ved": 4456,
      "èĥ½å¸®åĬ©ä½ł": 4457,
      "é¢Ŀå¤ĸ": 4458,
      "Ġmarket": 4459,
      "Ġnight": 4460,
      "input": 4461,
      "æķ°æį®åĪĨæŀĲ": 4462,
      "æ´²": 4463,
      "me": 4464,
      "wh": 4465,
      "Ġeas": 4466,
      "å¤ļå°ĳ": 4467,
      "ãģ¯": 4468,
      "ock": 4469,
      "Create": 4470,
      "Ġloop": 4471,
      "When": 4472,
      "çħ": 4473,
      "gs": 4474,
      "åı¯ä»¥æł¹æį®": 4475,
      "Ġrecogn": 4476,
      "æĸ°éĹ»": 4477,
      "Ġ\\),": 4478,
      "ä¼ĳæģ¯": 4479,
      "ĠMa": 4480,
      "ä¸Ĭä¸ĭæĸĩ": 4481,
      "Ġmem": 4482,
      "åĬłå¼º": 4483,
      "æ±Ł": 4484,
      "éĺ¿éĩĮå·´å·´éĽĨåĽ¢": 4485,
      "Ġsingle": 4486,
      "æ´ĭ": 4487,
      "PU": 4488,
      "imate": 4489,
      "çļĦæ²ŁéĢļ": 4490,
      "åľ¨æŁĲäºĽ": 4491,
      "æµª": 4492,
      "ä¸Ŀ": 4493,
      "è¡¨éĿ¢": 4494,
      "èī¯å¥½": 4495,
      "æŀ¶æŀĦ": 4496,
      "éĺ»": 4497,
      "ãģª": 4498,
      "åı¯æĮģç»Ńåıĳå±ķ": 4499,
      "Ġenh": 4500,
      "sql": 4501,
      "çŃīäºİ": 4502,
      "Ġmultiple": 4503,
      "plic": 4504,
      "æĸĩåŃĹ": 4505,
      "ä¹Łä¼ļ": 4506,
      "éĩİ": 4507,
      "ountain": 4508,
      "200": 4509,
      "ling": 4510,
      "åĪ¶éĢł": 4511,
      "âĢĿï¼Ī": 4512,
      "Ġdisc": 4513,
      "API": 4514,
      "Ġ17": 4515,
      "èĻ«": 4516,
      "éļĶ": 4517,
      "plify": 4518,
      "Ġclar": 4519,
      "åĪ°äºĨ": 4520,
      "æ¹ĸ": 4521,
      "Ġder": 4522,
      "Ġrequest": 4523,
      "æĹ¶åĢĻ": 4524,
      "æľªæĿ¥çļĦ": 4525,
      "ç½Ĺ": 4526,
      "åħ¬å¹³": 4527,
      "Ġchang": 4528,
      "æĮĩå¯¼": 4529,
      "åı«": 4530,
      "Ġless": 4531,
      "æľīçĿĢ": 4532,
      "çļĦæł¸": 4533,
      "pper": 4534,
      "ony": 4535,
      "éĢĤçĶ¨äºİ": 4536,
      "ĠÃ": 4537,
      "å®ļä½į": 4538,
      "æľīè¶£": 4539,
      "çļĦæŃ£": 4540,
      "JavaScript": 4541,
      "åĬ¨åĬĽ": 4542,
      "und": 4543,
      "ðŁ": 4544,
      "å¼ĢåıĳèĢħ": 4545,
      "ç¾İåĽ½": 4546,
      "èĪ¬": 4547,
      "...": 4548,
      "åĪĨä¸º": 4549,
      "çļĦæĮĳæĪĺ": 4550,
      "Ġamount": 4551,
      "Ġfilm": 4552,
      "å°½éĩı": 4553,
      "çļĦæ³ķ": 4554,
      "Ġprimary": 4555,
      "Ġpopular": 4556,
      "ume": 4557,
      "self": 4558,
      "80": 4559,
      "æ¯ĶèµĽ": 4560,
      "åĲįåŃĹ": 4561,
      "å¡«": 4562,
      "èĩªåĬ¨åĮĸ": 4563,
      "Ġes": 4564,
      "çŁ©éĺµ": 4565,
      "rehen": 4566,
      "łéģĵ": 4567,
      "ä¸ºä»Ģä¹Ī": 4568,
      "çıŃ": 4569,
      "Ġcapabilities": 4570,
      "Ġsnippet": 4571,
      "è·Ł": 4572,
      "</": 4573,
      "Ðº": 4574,
      "è¸ª": 4575,
      "ences": 4576,
      "Ġwidely": 4577,
      "Ġdel": 4578,
      "Ġconc": 4579,
      "nov": 4580,
      "åİļ": 4581,
      "è¿Ļä¸ªéĹ®é¢ĺ": 4582,
      "éĢļå¸¸ä¼ļ": 4583,
      "ä¿ĿåŃĺ": 4584,
      "ats": 4585,
      "è¿ľç¨ĭ": 4586,
      "ted": 4587,
      "è´¦æĪ·": 4588,
      "åħ¬ä¼Ĺ": 4589,
      "OS": 4590,
      "ider": 4591,
      "Ġgroup": 4592,
      "ext": 4593,
      "Ġnature": 4594,
      "ek": 4595,
      "è¡¨è¾¾å¼ı": 4596,
      "Ġunderstanding": 4597,
      "iled": 4598,
      "Ġeffic": 4599,
      "çĶ³è¯·": 4600,
      "è¯ĬæĸŃ": 4601,
      "æ¨¡æĭŁ": 4602,
      "iply": 4603,
      "çĶ¨æĪ·ä½ĵéªĮ": 4604,
      "ols": 4605,
      "éĽĨæĪĲ": 4606,
      "éģĵå¾·": 4607,
      "é¾Ļ": 4608,
      "come": 4609,
      "40": 4610,
      "Ġhistory": 4611,
      "æİĪ": 4612,
      "æ±¡æŁĵ": 4613,
      "éŁ": 4614,
      "æıĲé«ĺäºĨ": 4615,
      "Ġrelated": 4616,
      "å¥Ĺ": 4617,
      "åı¯èĥ½æĺ¯": 4618,
      "æ¯ıå¤©": 4619,
      "ancial": 4620,
      "åģ¶": 4621,
      "Ġscient": 4622,
      "éĿŀå¸¸éĩįè¦ģ": 4623,
      "chie": 4624,
      "åı¯ä»¥çĶ¨äºİ": 4625,
      "Ġoriginal": 4626,
      "æľĢå°ı": 4627,
      "èĤĮ": 4628,
      "åĳ¼åĲ¸": 4629,
      "Ġnovel": 4630,
      "Ġupdates": 4631,
      "çļĦæĥħæĦŁ": 4632,
      "ä½ĵç³»": 4633,
      "èĭ±è¯Ń": 4634,
      "Alibaba": 4635,
      "éĢĴå½Ĵ": 4636,
      "çļĦä¸Ģä¸ª": 4637,
      "ists": 4638,
      "Ġsize": 4639,
      "åľ¨å®ŀéĻħ": 4640,
      "data": 4641,
      "æĪĲä¸ºäºĨ": 4642,
      "Ġfur": 4643,
      "æ»¤": 4644,
      "Ġrequire": 4645,
      "æķıæĦŁ": 4646,
      "æİĮ": 4647,
      "ãĤĭ": 4648,
      "Ġtest": 4649,
      "åıĳéĢģ": 4650,
      "Ġappe": 4651,
      "Ġkil": 4652,
      "ç¨ĭåº¦": 4653,
      "Ġfew": 4654,
      "æ°ĶåĢĻ": 4655,
      "ç¡®è®¤": 4656,
      "æĪĲæŀľ": 4657,
      "Ġnext": 4658,
      "ä¸ĵæ³¨": 4659,
      "Ġvariable": 4660,
      "Ġbegin": 4661,
      "boxed": 4662,
      "Ġsil": 4663,
      "åŃ¦æł¡": 4664,
      "Ġfeatures": 4665,
      "æĿ¥èĩª": 4666,
      "çļĦæĻº": 4667,
      "å®īæİĴ": 4668,
      "å®ģ": 4669,
      "èµĦéĩĳ": 4670,
      "par": 4671,
      "èī²å½©": 4672,
      "è®©æĪĳä»¬": 4673,
      "ames": 4674,
      "èĲ¥åħ»": 4675,
      "Ġfore": 4676,
      "Ġeconom": 4677,
      "Ġgent": 4678,
      "é©±": 4679,
      "å±ŀæĢ§": 4680,
      "ç®Ģæ´ģ": 4681,
      "Ġcomprehen": 4682,
      "ç«ĭåį³": 4683,
      "Ġ\\).": 4684,
      "Ġequal": 4685,
      "çļĦä»£çłģ": 4686,
      "Ġbeauty": 4687,
      "å¤§è§Ħæ¨¡": 4688,
      "åĲĳéĩı": 4689,
      "ıè§Ī": 4690,
      "æľ«": 4691,
      "requ": 4692,
      "åĪ°çļĦ": 4693,
      "åĬłéĢŁ": 4694,
      "_{": 4695,
      "ÙĬ": 4696,
      "Ġdays": 4697,
      "è´¥": 4698,
      "Ġstandard": 4699,
      "ĠAn": 4700,
      "è´¹çĶ¨": 4701,
      "èĳĹåĲį": 4702,
      "æ±ī": 4703,
      "min": 4704,
      "çļĦç²": 4705,
      "Ġlanguages": 4706,
      "irtual": 4707,
      "Ġpres": 4708,
      "Ġvast": 4709,
      "ĥåľ": 4710,
      "ples": 4711,
      "çļĦæ´»": 4712,
      "åĵ²": 4713,
      "çļĦæĶ¯": 4714,
      "ç¡¬ä»¶": 4715,
      "é¢Ĩå¯¼": 4716,
      "èĤ¡ç¥¨": 4717,
      "åŀĥåľ": 4718,
      "åŀĥåľ¾": 4719,
      "åı¯ä»¥æıĲé«ĺ": 4720,
      "éĹ®é¢ĺæĪĸ": 4721,
      "Ġrese": 4722,
      "æ²ī": 4723,
      "è·³": 4724,
      "Ġê": 4725,
      "æİ¥æĶ¶": 4726,
      "uture": 4727,
      "ond": 4728,
      "Ġhad": 4729,
      "æ»¡æĦı": 4730,
      "Ġavail": 4731,
      "AB": 4732,
      "Ġproper": 4733,
      "IP": 4734,
      "æľīçļĦ": 4735,
      "uth": 4736,
      "æĶ¶åħ¥": 4737,
      "Ġtimes": 4738,
      "è§Ħå®ļ": 4739,
      "ç´§æĢ¥": 4740,
      "Ġlook": 4741,
      "ç»Łè®¡": 4742,
      "Ġmet": 4743,
      "å²ģ": 4744,
      "Ġcond": 4745,
      "ãĥ¼": 4746,
      "Ġassistant": 4747,
      "ditionally": 4748,
      "Ġfield": 4749,
      "äº¤äºĴ": 4750,
      "åĪĿå§ĭ": 4751,
      "èĽĭçĻ½": 4752,
      "å³": 4753,
      "Ġsay": 4754,
      "çĸĳ": 4755,
      "æĶ¾æĿ¾": 4756,
      "æ¶¦": 4757,
      "Ġsoftware": 4758,
      "æľīæķĪçļĦ": 4759,
      "æ©": 4760,
      "çĶŁéķ¿": 4761,
      "é¢ĳçİĩ": 4762,
      "Trans": 4763,
      "æ³¨åĨĮ": 4764,
      "èĭ±æĸĩ": 4765,
      "æİ¢è®¨": 4766,
      "é¡ºåºı": 4767,
      "Ġland": 4768,
      "Ġnote": 4769,
      "pos": 4770,
      "\"?": 4771,
      "æŁ¥æī¾": 4772,
      "äººçī©": 4773,
      "æĹ¶æľŁ": 4774,
      "ining": 4775,
      "izes": 4776,
      "åĢĴ": 4777,
      "Ġgenerating": 4778,
      "Ġsomeone": 4779,
      "Ġfurther": 4780,
      "ãģĮ": 4781,
      "ä¸»ä¹ī": 4782,
      "åĲ«ä¹ī": 4783,
      "ä¸ªäººçļĦ": 4784,
      "åľ¨ä¸Ģä¸ª": 4785,
      "roid": 4786,
      "Ġnow": 4787,
      "åį·": 4788,
      "è½¦è¾Ĩ": 4789,
      "ta": 4790,
      "åĴĮç®¡çĲĨ": 4791,
      "åĢĭ": 4792,
      "çĹĽ": 4793,
      "ä»įçĦ¶": 4794,
      "è¦ĨçĽĸ": 4795,
      "Ġnp": 4796,
      "Ġold": 4797,
      "ãģ¦": 4798,
      "å½¢è±¡": 4799,
      "èĢĮæĺ¯": 4800,
      "Ġformat": 4801,
      "Ġfinancial": 4802,
      "åı¥è¯Ŀ": 4803,
      "çĻ¾": 4804,
      "He": 4805,
      "lu": 4806,
      "åĨĴ": 4807,
      "æ·±åĪ»": 4808,
      "å¹¶ä¸Ķ": 4809,
      "avas": 4810,
      "åĲ¯åĬ¨": 4811,
      "å¹»": 4812,
      "Ġdatab": 4813,
      "æľĢä½³": 4814,
      "Ġnames": 4815,
      "ç¬ĳ": 4816,
      "âĢĿãĢģ": 4817,
      "Ġcomputer": 4818,
      "Ġability": 4819,
      "Ġparticularly": 4820,
      "åıĸå¾Ĺ": 4821,
      "çļĦç¬¬": 4822,
      "avascript": 4823,
      "oice": 4824,
      "Ġdocument": 4825,
      "ĠLet": 4826,
      "Ġapplications": 4827,
      "çĽ®åīį": 4828,
      "Ġclear": 4829,
      "ispers": 4830,
      "Ã³": 4831,
      "ç«¥": 4832,
      "è¿Ļæł·çļĦ": 4833,
      "å¸®æĪĳ": 4834,
      "çľĭèµ·æĿ¥": 4835,
      "å¹¸": 4836,
      "å°ıè¯´": 4837,
      "play": 4838,
      "dict": 4839,
      "ished": 4840,
      "Ġpract": 4841,
      "çķĮéĿ¢": 4842,
      "Ġachie": 4843,
      "Ġå°Ĩ": 4844,
      "çłĶåıĳ": 4845,
      "æ¼«": 4846,
      "åı¤ä»£": 4847,
      "çļĦç¼ĸç¨ĭ": 4848,
      "ystem": 4849,
      "Ġwithin": 4850,
      "ç£ģ": 4851,
      "Ġmar": 4852,
      "right": 4853,
      "ä¿®å¤į": 4854,
      "ledge": 4855,
      "åįł": 4856,
      "EO": 4857,
      "æĪĳä»¬çļĦ": 4858,
      "çī©æµģ": 4859,
      "ãģ¾ãģĻ": 4860,
      "Ġcountry": 4861,
      "Ġsever": 4862,
      "å±ŀäºİ": 4863,
      "NA": 4864,
      "ĠNew": 4865,
      "åıĬåħ¶": 4866,
      "Ġpoints": 4867,
      "ç´¯": 4868,
      "å°½åĬĽ": 4869,
      "æĢİä¹Ī": 4870,
      "ding": 4871,
      "çļĦæł¸å¿ĥ": 4872,
      "å¤§éĩıçļĦ": 4873,
      "Ġevent": 4874,
      "ane": 4875,
      "Ġthose": 4876,
      "éĢīæĭ©åĲĪéĢĤçļĦ": 4877,
      "Ġintegers": 4878,
      "Ġæĺ¯": 4879,
      "ables": 4880,
      "çŃĶæ¡Ī": 4881,
      "land": 4882,
      "ml": 4883,
      "ãģ¨": 4884,
      "Ġderiv": 4885,
      "âĢĿãĢģâĢľ": 4886,
      "hel": 4887,
      "Ġâ": 4888,
      "åħ°": 4889,
      "æ··åĲĪ": 4890,
      "æĢĿæĥ³": 4891,
      "å¸ĥå±Ģ": 4892,
      "çīĻ": 4893,
      "æģ¶": 4894,
      "å¼ķèµ·": 4895,
      "Ġå¦Ĥæŀľ": 4896,
      "å°¾": 4897,
      "è¿Ļä¸ªåĩ½æķ°": 4898,
      "è§Ĥä¼Ĺ": 4899,
      "åŁºåĽł": 4900,
      "ERE": 4901,
      "Let": 4902,
      "çļĦæķ°åŃĹ": 4903,
      "è¿Ń": 4904,
      "çªĹ": 4905,
      "load": 4906,
      "Ġdetermine": 4907,
      "oms": 4908,
      "åŃ¦ä¼ļ": 4909,
      "èĦĤ": 4910,
      "ift": 4911,
      "éĿ¢ç§¯": 4912,
      "å®¶äºº": 4913,
      "äºĪ": 4914,
      "Ġpot": 4915,
      "ä½łå¯¹": 4916,
      "iving": 4917,
      "ç±»åŀĭçļĦ": 4918,
      "ä¸¥éĩį": 4919,
      "Ġseveral": 4920,
      "çĬ¯": 4921,
      "ç±»ä¼¼": 4922,
      "ush": 4923,
      "ç¬¬ä¸Ģ": 4924,
      "è¾ħåĬ©": 4925,
      "ä¾ĽåºĶéĵ¾": 4926,
      "åĴĮå¯¹": 4927,
      "æ»ĳ": 4928,
      "Ġequations": 4929,
      "ä¸ĵä¸ļçļĦ": 4930,
      "çļĦåıĺåĮĸ": 4931,
      "Ġsolutions": 4932,
      "Ġbase": 4933,
      "Ġcommunic": 4934,
      "æįķ": 4935,
      "åŃ¦èĢħ": 4936,
      "Ġlove": 4937,
      "çļĦæłĩ": 4938,
      "Ġhighest": 4939,
      "javascript": 4940,
      "Ġrecord": 4941,
      "Ġmath": 4942,
      "anced": 4943,
      "Ġpurpose": 4944,
      "çļĦæĢ»": 4945,
      "é£Łåĵģ": 4946,
      "AIæĬĢæľ¯": 4947,
      "HERE": 4948,
      "hemat": 4949,
      "åĢº": 4950,
      "ÃŃ": 4951,
      "Ġacross": 4952,
      "ä¸īè§Ĵ": 4953,
      "æ¶īåıĬåĪ°": 4954,
      "Ġworking": 4955,
      "ism": 4956,
      "stitute": 4957,
      "éĴĪå¯¹": 4958,
      "Ġinit": 4959,
      "ailed": 4960,
      "not": 4961,
      "çĽĲ": 4962,
      "æĺĵäºİ": 4963,
      "Ġleading": 4964,
      "Ġvery": 4965,
      "Ġonline": 4966,
      "oot": 4967,
      "ç´¢å¼ķ": 4968,
      "è´§å¸ģ": 4969,
      "çĥ¤": 4970,
      "é¸Ł": 4971,
      "ĠPr": 4972,
      "utes": 4973,
      "çļĦåħĥç´ł": 4974,
      "ene": 4975,
      "è¶ħè¿ĩ": 4976,
      "ä¸¥æł¼": 4977,
      "æĿĥéĻĲ": 4978,
      "ference": 4979,
      "Ġsymb": 4980,
      "stems": 4981,
      "åľ¨äºİ": 4982,
      "']": 4983,
      "Ġemb": 4984,
      "aces": 4985,
      "rand": 4986,
      "Ġcolor": 4987,
      "çļĦçĥŃ": 4988,
      "Now": 4989,
      "div": 4990,
      "é¢Ĺ": 4991,
      "çļĦåľ°æĸ¹": 4992,
      "ä¿ĿéĻ©": 4993,
      "çī©åĵģ": 4994,
      "æłĩçŃ¾": 4995,
      "Ġresponse": 4996,
      "Ġmeters": 4997,
      "Pythonä¸Ń": 4998,
      "è¯º": 4999,
      "å¤ĸéĥ¨": 5000,
      "Ġinnov": 5001,
      "è¿ĽåĪ¶": 5002,
      "èĭı": 5003,
      "ooks": 5004,
      "ç¼ĺ": 5005,
      "çļ®èĤ¤": 5006,
      "è®©äºº": 5007,
      "Ġsolution": 5008,
      "eter": 5009,
      "çĻ»å½ķ": 5010,
      "ĠWh": 5011,
      "å®¢æľį": 5012,
      "åİŁå§ĭ": 5013,
      "åĴĮåºĶçĶ¨": 5014,
      "èĢĲå¿ĥ": 5015,
      "by": 5016,
      "çļĦçĽ®æłĩ": 5017,
      "ä¿Ŀè¯ģ": 5018,
      "ä½łæĥ³è¦ģ": 5019,
      "å®¹åĻ¨": 5020,
      "pre": 5021,
      "çĹħæ¯Ĵ": 5022,
      "Ġimpact": 5023,
      "æıĲåıĸ": 5024,
      "æĥł": 5025,
      "---": 5026,
      "ership": 5027,
      "åĴĮç¤¾ä¼ļ": 5028,
      "åħħåĪĨ": 5029,
      "æķ°åĢ¼": 5030,
      "Ġconditions": 5031,
      "idd": 5032,
      "åºĶçĶ¨äºİ": 5033,
      "è£ħé¥°": 5034,
      "é¢ĨåŁŁçļĦ": 5035,
      "Ġrespons": 5036,
      "çļĦæ³ķå¾ĭ": 5037,
      "æĬĬ": 5038,
      "åĵ²åŃ¦": 5039,
      "å¼ºå¤§çļĦ": 5040,
      "Ġselect": 5041,
      "cos": 5042,
      "çī¹èī²": 5043,
      "ĠThey": 5044,
      "çº¿æĢ§": 5045,
      "Ġside": 5046,
      "æµĵ": 5047,
      "æķ´ä½ĵ": 5048,
      "Web": 5049,
      "Ġspace": 5050,
      "Ġartic": 5051,
      "éĵ¾æİ¥": 5052,
      "Ġjoke": 5053,
      "way": 5054,
      "çļĦæľįåĬ¡": 5055,
      "Ġmodels": 5056,
      "å±ħæ°ĳ": 5057,
      "ï¼ĮâĢľ": 5058,
      "æĹħæ¸¸": 5059,
      "åĴĮåĪĨæŀĲ": 5060,
      "æµıè§Ī": 5061,
      "less": 5062,
      "Ġpain": 5063,
      "çļĦæ¦Ĥå¿µ": 5064,
      "çī¹åĪ«æĺ¯": 5065,
      "Ġperformance": 5066,
      "idi": 5067,
      "=\"": 5068,
      "ron": 5069,
      "Ġmind": 5070,
      "Ġvariety": 5071,
      "Ùħ": 5072,
      "ĠBe": 5073,
      "Ġstore": 5074,
      "æŃ£å¸¸": 5075,
      "Ġprodu": 5076,
      "å¹¿åĳĬ": 5077,
      "çĶ²": 5078,
      "æľĢæĸ°çļĦ": 5079,
      "é¡¾å®¢": 5080,
      "æĺ¯ä¸ŃåĽ½": 5081,
      "Ġrelations": 5082,
      "Ġmountain": 5083,
      "Ġfactors": 5084,
      "è´·": 5085,
      "æ·±è¿ľ": 5086,
      "å°¼": 5087,
      "Ġgentle": 5088,
      "Ġmiles": 5089,
      "Ġbefore": 5090,
      "çĥĪ": 5091,
      "array": 5092,
      "æķĳ": 5093,
      "Ġvol": 5094,
      "Ġensure": 5095,
      "æ¬§": 5096,
      "æľīæīĢä¸įåĲĮ": 5097,
      "Ġknowledge": 5098,
      "ç¢į": 5099,
      "åıįæĺłäºĨ": 5100,
      "è°Ī": 5101,
      "Ġopen": 5102,
      "åĨľä¸ļ": 5103,
      "è¿ŀç»Ń": 5104,
      "éĶģ": 5105,
      "ĠAdditionally": 5106,
      "ç»ıåħ¸": 5107,
      "Ġbro": 5108,
      "æĮ¥": 5109,
      "ä¸ĭæĿ¥": 5110,
      "ä¹Łåı¯èĥ½": 5111,
      "ä¸ĭéĻį": 5112,
      "éĽĨåĲĪ": 5113,
      "agraph": 5114,
      "Ġexplo": 5115,
      "meric": 5116,
      "Ġlen": 5117,
      "éĽª": 5118,
      "Ñĭ": 5119,
      "Ġstructure": 5120,
      "Ġmanage": 5121,
      "æŀĦæĪĲ": 5122,
      "ä»·åĢ¼è§Ĥ": 5123,
      "TP": 5124,
      "ä¾§": 5125,
      "è®¾è®¡ä¸Ģä¸ª": 5126,
      "åĬ©æīĭ": 5127,
      "Ġrest": 5128,
      "ä½łåı¯èĥ½éľĢè¦ģ": 5129,
      "Ġdev": 5130,
      "åĮĢ": 5131,
      "Pro": 5132,
      "çŃīæĸ¹å¼ı": 5133,
      "çĩĥ": 5134,
      "Ġgold": 5135,
      "åıĤèĢĥ": 5136,
      "ober": 5137,
      "Ġ\\,": 5138,
      "Ġdeveloped": 5139,
      "è¯ĹæŃĮ": 5140,
      "cent": 5141,
      "è¿¹": 5142,
      "å¤§åŃ¦": 5143,
      "ĠDe": 5144,
      "ccess": 5145,
      "Ġ&": 5146,
      "Ġmus": 5147,
      "æ°¸": 5148,
      "ctor": 5149,
      "æ¸łéģĵ": 5150,
      "éļĲç§ģä¿ĿæĬ¤": 5151,
      "acci": 5152,
      "æĢ§è´¨": 5153,
      "æŃ£ç¡®çļĦ": 5154,
      "åį±": 5155,
      "åĲĪåĲĮ": 5156,
      "æłĩé¢ĺ": 5157,
      "be": 5158,
      "è¿ħ": 5159,
      "åįĪ": 5160,
      "ivity": 5161,
      "ibon": 5162,
      "æ³Ħ": 5163,
      "è½¬åĮĸ": 5164,
      "éĺ¿éĩĮå·´å·´äºĳ": 5165,
      "çĶµæ±ł": 5166,
      "gether": 5167,
      "çļĦå»ºè®®": 5168,
      "Ġtogether": 5169,
      "ade": 5170,
      "Ġlibr": 5171,
      "çļĦæıĲ": 5172,
      "Ġhours": 5173,
      "ç»©": 5174,
      "å¤§åľ°": 5175,
      "Ġlevel": 5176,
      "ibonacci": 5177,
      "éĺ³åħī": 5178,
      "Ġavailable": 5179,
      "Ġuses": 5180,
      "Ġanaly": 5181,
      "çļĦæĬķ": 5182,
      "åĳ¨æľŁ": 5183,
      "èĦļæľ¬": 5184,
      "Ġidentify": 5185,
      "ä¹ħ": 5186,
      "Ñı": 5187,
      "æľĿ": 5188,
      "ĠCon": 5189,
      "ision": 5190,
      "å®ļåĪ¶": 5191,
      "éľĢè¦ģæ³¨æĦı": 5192,
      "åħĥç´łçļĦ": 5193,
      "Ġartificial": 5194,
      "Ġmax": 5195,
      "ernet": 5196,
      "ãģŁ": 5197,
      "çļĦç©": 5198,
      "å¹³æĸ¹": 5199,
      "æŁĶ": 5200,
      "IN": 5201,
      "çľŁå®ŀ": 5202,
      "æ²¿": 5203,
      "æĪĲå°±": 5204,
      "ä¼ĺåħĪ": 5205,
      "Ġresources": 5206,
      "Ġbas": 5207,
      "å°º": 5208,
      "æĲŃ": 5209,
      "åĮºåĿĹéĵ¾æĬĢæľ¯": 5210,
      "æī®": 5211,
      "Ġmonth": 5212,
      "å¥ı": 5213,
      "ç¬¬ä¸ī": 5214,
      "Ġreflect": 5215,
      "çļĦä¸Ģéĥ¨åĪĨ": 5216,
      "çļĦåģ¥åº·": 5217,
      "è®°ä½ı": 5218,
      "æ¢¦æĥ³": 5219,
      "é¢Ħéĺ²": 5220,
      "æķ¸": 5221,
      "Ġchall": 5222,
      "Ġcontrib": 5223,
      "SON": 5224,
      "å¤§åŀĭ": 5225,
      "çĽ¸ä¼¼": 5226,
      "Ġsense": 5227,
      "ances": 5228,
      "æ¼ı": 5229,
      "ç¥ŀç»ıç½ĳç»ľ": 5230,
      "Ġbir": 5231,
      "æľ¬èº«": 5232,
      "æ¶µ": 5233,
      "Ġgreat": 5234,
      "}\\)": 5235,
      "Ġgrowth": 5236,
      "Ġbeh": 5237,
      "Ġparagraph": 5238,
      "è¿Ńä»£": 5239,
      "åĬĽçļĦ": 5240,
      "å¹´è½»": 5241,
      "Ġcall": 5242,
      "Ġsteps": 5243,
      "33": 5244,
      "arget": 5245,
      "éĵº": 5246,
      "åı¦ä¸Ģä¸ª": 5247,
      "Ġexplain": 5248,
      ")`": 5249,
      "Ġann": 5250,
      "otal": 5251,
      "æīĢéľĢ": 5252,
      "åįĸ": 5253,
      "æ²Ļ": 5254,
      "Ġcircle": 5255,
      "Ġclarify": 5256,
      "man": 5257,
      "iver": 5258,
      "rame": 5259,
      "èĢĮä¸Ķ": 5260,
      "èµĦäº§": 5261,
      "ä¹¡": 5262,
      "Ġver": 5263,
      "Ġ60": 5264,
      "And": 5265,
      "ĠSo": 5266,
      "Ġ40": 5267,
      "å£°éŁ³": 5268,
      "åĴĮæĬĢæľ¯": 5269,
      "alcul": 5270,
      "æĭį": 5271,
      "æ¯ıæ¬¡": 5272,
      "æľīåħ³": 5273,
      "ival": 5274,
      "çļĦçŁ": 5275,
      "èĩ³å°ĳ": 5276,
      "Ġredu": 5277,
      "æĹ¶çļĦ": 5278,
      "å¹´çļĦ": 5279,
      "Ġindust": 5280,
      "Ġexperience": 5281,
      "åĪ¸": 5282,
      "ä¸¤ç§į": 5283,
      "æł¸å¿ĥ": 5284,
      "gorithm": 5285,
      "æİĮæı¡": 5286,
      "çģ¾": 5287,
      "å¤§å¤ļ": 5288,
      "å·¥ä¸ļ": 5289,
      "acy": 5290,
      "ãĢĭï¼Ī": 5291,
      "inux": 5292,
      "90": 5293,
      "è¿Ľå±ķ": 5294,
      "çļĦæ¸©": 5295,
      "åħħæ»¡äºĨ": 5296,
      "éŃĶ": 5297,
      "Ð¼": 5298,
      "Ġsubs": 5299,
      "PythonçļĦ": 5300,
      "åĪĨåŃĲ": 5301,
      "ST": 5302,
      "æľīäºĽ": 5303,
      "æ¸©æļĸ": 5304,
      "Ġsit": 5305,
      "Ġdetailed": 5306,
      "å¿ĺ": 5307,
      "Ġhead": 5308,
      "éĻĦ": 5309,
      "å®ĥçļĦ": 5310,
      "æĸ¹ä¾¿": 5311,
      "ĠJavaScript": 5312,
      "Ġwon": 5313,
      "è®©ä½ł": 5314,
      "Ġtranslate": 5315,
      "æĺ¯åĲ¦æľī": 5316,
      "Ġvirtual": 5317,
      "Com": 5318,
      "ä»¥åħ¶": 5319,
      "asure": 5320,
      "utput": 5321,
      "Ãł": 5322,
      "Ġfollows": 5323,
      "ĽåĽ´": 5324,
      "ä¿ĥè¿ĽäºĨ": 5325,
      "ä½ĵçİ°äºĨ": 5326,
      "æĹ¶ä»£": 5327,
      "Ġmathemat": 5328,
      "Ġfuture": 5329,
      "æĿİæĺİ": 5330,
      "LP": 5331,
      "è¿Ŀ": 5332,
      "æĸ°é²ľ": 5333,
      "æ³¨éĩį": 5334,
      "Ġpattern": 5335,
      "éļ¾ä»¥": 5336,
      "éĢīæĭ©ä¸Ģä¸ª": 5337,
      "ç¼ĸçłģ": 5338,
      "face": 5339,
      "oid": 5340,
      "ury": 5341,
      "éĩįè§Ĩ": 5342,
      "çļĦæ¨¡åŀĭ": 5343,
      "è¿Ĳç®Ĺ": 5344,
      "cer": 5345,
      "iod": 5346,
      "Ġcr": 5347,
      "(-": 5348,
      "Ġnews": 5349,
      "ĠFrance": 5350,
      "åºĬ": 5351,
      "ä¸ĵå®¶": 5352,
      "Ġresearch": 5353,
      "Ġgreater": 5354,
      "ape": 5355,
      "åıªæľī": 5356,
      "åĵĪå¸Į": 5357,
      "èģĬ": 5358,
      "é«ĺçº§": 5359,
      "èĶ¬": 5360,
      "å¢Ļ": 5361,
      "Ġspecial": 5362,
      "Ġdirectly": 5363,
      "å®īåħ¨çļĦ": 5364,
      "ç²Ĵ": 5365,
      "å¤ĩä»½": 5366,
      "åĪº": 5367,
      "Ġprice": 5368,
      "çĭĹ": 5369,
      "Ġtitle": 5370,
      "æľīåĵªäºĽ": 5371,
      "Ġrelationship": 5372,
      "ÑĮ": 5373,
      "ä¾µ": 5374,
      "çŃīå¾ħ": 5375,
      "ording": 5376,
      "åľ°çĤ¹": 5377,
      "Ġmeet": 5378,
      "ä¼łéĢĴ": 5379,
      "çļĦæĢģåº¦": 5380,
      "æķħéļľ": 5381,
      "Ġreverse": 5382,
      "etic": 5383,
      "äº¤æį¢": 5384,
      "Ġmust": 5385,
      "é«ĺåħ´": 5386,
      "ounds": 5387,
      "é¢ĦæľŁ": 5388,
      "Ġfeet": 5389,
      "åĪĿåŃ¦èĢħ": 5390,
      "ä¼Ļ": 5391,
      "æıĲä¾Ľä¸Ģä¸ª": 5392,
      "åİħ": 5393,
      "çļĦæµģ": 5394,
      "tle": 5395,
      "ç¼ĸç¨ĭè¯Ńè¨Ģ": 5396,
      "åŃ£èĬĤ": 5397,
      "éĩıåŃĲè®¡ç®Ĺ": 5398,
      "uro": 5399,
      "Ġsea": 5400,
      "æ¯Ķçī¹": 5401,
      "æľīéĻĲ": 5402,
      "Ġarg": 5403,
      "FROM": 5404,
      "Ġhome": 5405,
      "Ġdiscuss": 5406,
      "åħ·å¤ĩ": 5407,
      "æļĹ": 5408,
      "Ġprev": 5409,
      "æī®æ¼Ķ": 5410,
      "åľ°æĸ¹": 5411,
      "åĮĹäº¬": 5412,
      "å®ģéĿĻ": 5413,
      "è§ĦèĮĥ": 5414,
      "ç¤¾ä¼ļçļĦ": 5415,
      "çĽ®å½ķ": 5416,
      "åŃ¦æľ¯": 5417,
      "Ġmix": 5418,
      "åľ¨å¤ĦçĲĨ": 5419,
      "icro": 5420,
      "key": 5421,
      "Ġweb": 5422,
      "æĵįä½ľç³»ç»Ł": 5423,
      "¹æŀľ": 5424,
      "çī©èģĶç½ĳ": 5425,
      "æľįåĬ¡çļĦ": 5426,
      "æıĲåīį": 5427,
      "çĤİ": 5428,
      "åĲĮæł·": 5429,
      "Ġemployees": 5430,
      "Ġcut": 5431,
      "åĲĪè§Ħ": 5432,
      "çļĦéĢīæĭ©": 5433,
      "å¥¥": 5434,
      "col": 5435,
      "ç§Ģ": 5436,
      "è¿Ľç¨ĭ": 5437,
      "}}": 5438,
      "æķĻåŃ¦": 5439,
      "éĶħ": 5440,
      "uc": 5441,
      "ä¿¡çĶ¨": 5442,
      "ä¿¡æģ¯çļĦ": 5443,
      "çļĦæİ¨": 5444,
      "åĢį": 5445,
      "éļľç¢į": 5446,
      "orn": 5447,
      "ĠInd": 5448,
      "æľªçŁ¥": 5449,
      "çķħ": 5450,
      "è½»è½»": 5451,
      "ä¿Ŀéļľ": 5452,
      "ĠApp": 5453,
      "ä¸Ģç³»åĪĹ": 5454,
      "åĨ¬": 5455,
      "æĪĳä»¬é¦ĸåħĪ": 5456,
      "å¤§å¤ļæķ°": 5457,
      "çļĦäº§åĵģ": 5458,
      "å½¢çĬ¶": 5459,
      "Ġallows": 5460,
      "olution": 5461,
      "Ġsource": 5462,
      "Ġocc": 5463,
      "åĲĪæ³ķ": 5464,
      "åľ¨Pythonä¸Ń": 5465,
      "å¤§çº¦": 5466,
      "Ġanother": 5467,
      "éĢĲæŃ¥": 5468,
      "ä½¿çĶ¨äºĨ": 5469,
      "åĿĩåĮĢ": 5470,
      "çļĦå¿ĥ": 5471,
      "Ġwind": 5472,
      "æĸĹ": 5473,
      "Ġlower": 5474,
      "è§£æŀĲ": 5475,
      "çĿ£": 5476,
      "å°ļ": 5477,
      "æģĴ": 5478,
      "çĿ¡çľł": 5479,
      "ĠAmeric": 5480,
      "è·ĳ": 5481,
      "âĢĶâĢĶ": 5482,
      "ants": 5483,
      "çīĽå¥¶": 5484,
      "æ°§åĮĸ": 5485,
      "mod": 5486,
      "å½¢çļĦ": 5487,
      "çļĦç©º": 5488,
      "Ð²": 5489,
      "ales": 5490,
      "ana": 5491,
      "æıĲä¾ĽæĽ´": 5492,
      "Ġsor": 5493,
      "èĥģ": 5494,
      "iet": 5495,
      "ç§Ĵ": 5496,
      "change": 5497,
      "Ġcountries": 5498,
      "è¿ħéĢŁ": 5499,
      "èĶ¬èıľ": 5500,
      "Ġthough": 5501,
      "ĠCEO": 5502,
      "idered": 5503,
      "èĭ¹æŀľ": 5504,
      "Ġmultiply": 5505,
      "Ġwriting": 5506,
      "jor": 5507,
      "çĥ§": 5508,
      "Ġtask": 5509,
      "ser": 5510,
      "Ġdecimal": 5511,
      "inter": 5512,
      "æ³ķå¾ĭæ³ķè§Ħ": 5513,
      "Ġphysical": 5514,
      "Ġradius": 5515,
      "è·ĥ": 5516,
      "å°½ç®¡": 5517,
      "çľŁæŃ£": 5518,
      "æĢ»ç»ĵ": 5519,
      "å¯¹ä½łæľīæīĢå¸®åĬ©": 5520,
      "çļĦç²¾": 5521,
      "è§Ĩä¸º": 5522,
      "éĹ®é¢ĺçļĦ": 5523,
      "Ġconsidered": 5524,
      "å¦ĤæŀľæĤ¨æľī": 5525,
      "Ġtopics": 5526,
      "æĸĩæĺİ": 5527,
      "Ġgra": 5528,
      "è°±": 5529,
      "èĥľ": 5530,
      "åŁºæľ¬çļĦ": 5531,
      "ditional": 5532,
      "åı¯ä»¥å°Ĩ": 5533,
      "Ġred": 5534,
      "ä¸ĭéĿ¢æĺ¯ä¸Ģä¸ª": 5535,
      "æĹ¥å¸¸çĶŁæ´»": 5536,
      "å¦Ĥæŀľæľī": 5537,
      "è¿ĺæľī": 5538,
      "Ġpriv": 5539,
      "å¨ģèĥģ": 5540,
      "æĦŁåıĹ": 5541,
      "åľ¨ä¸ŃåĽ½": 5542,
      "Ġaddition": 5543,
      ")\\)": 5544,
      "ä¸ĸçºª": 5545,
      "ĠOct": 5546,
      "è®²è¿°": 5547,
      "Ġhy": 5548,
      "ton": 5549,
      "ule": 5550,
      "Le": 5551,
      "ĠAre": 5552,
      "Ġrespect": 5553,
      "ç«ŀäºīåĬĽ": 5554,
      "æīĺ": 5555,
      "äºĨè§£ä¸Ģä¸ĭ": 5556,
      "è¯»åıĸ": 5557,
      "ä»¥æıĲé«ĺ": 5558,
      "å°¤åħ¶æĺ¯åľ¨": 5559,
      "éĿ¢çļĦ": 5560,
      "è¯»èĢħ": 5561,
      "ä¸ĵæ³¨äºİ": 5562,
      "Ġtypes": 5563,
      "29": 5564,
      "Are": 5565,
      "ä½¿åħ¶": 5566,
      "amb": 5567,
      "Ġstill": 5568,
      "å±ıå¹ķ": 5569,
      "çĤ¼": 5570,
      "æĽ´åĩĨç¡®åľ°": 5571,
      "Ġpotential": 5572,
      "ç¡®ä¿ĿæīĢæľī": 5573,
      "We": 5574,
      "åĮºåĪ«": 5575,
      "é¡ºåĪ©": 5576,
      "åħŃ": 5577,
      "çº¿ç¨ĭ": 5578,
      "gen": 5579,
      "01": 5580,
      "Ġheight": 5581,
      "Ġmoon": 5582,
      "versed": 5583,
      "èıĮ": 5584,
      "Ø§ÙĦ": 5585,
      "])": 5586,
      "view": 5587,
      "Ġiter": 5588,
      "Ġanswering": 5589,
      "lished": 5590,
      "zhou": 5591,
      "æľŁæľĽ": 5592,
      "late": 5593,
      "éĩįè¦ģçļĦæĺ¯": 5594,
      "ç®ĢåĮĸ": 5595,
      "kes": 5596,
      "åı¯ä»¥æľīæķĪ": 5597,
      "ä¸ĬæīĢ": 5598,
      "ĠTherefore": 5599,
      "LE": 5600,
      "çļĦæ¯Ķ": 5601,
      "èĩªåĬ¨é©¾é©¶": 5602,
      "Ġdatabase": 5603,
      "ara": 5604,
      "Ġoffer": 5605,
      "istics": 5606,
      "åı¯èĥ½ä¼ļå¯¼èĩ´": 5607,
      "å¥½å¥ĩ": 5608,
      "èĦ±": 5609,
      "çļĦçĪ": 5610,
      "èĤ¥": 5611,
      "Ġcontains": 5612,
      "åºĶçĶ¨ä¸Ń": 5613,
      "Ġunits": 5614,
      "åĴĮå»ºè®®": 5615,
      "çļĦç»ĵæŀľ": 5616,
      "ĠJack": 5617,
      "æī°": 5618,
      "ä½¿çĶ¨çļĦ": 5619,
      "æĮĩæłĩ": 5620,
      "åĨįæ¬¡": 5621,
      "Ġsong": 5622,
      "rop": 5623,
      "Ġreli": 5624,
      "rench": 5625,
      "Ġess": 5626,
      "æİ¨å¹¿": 5627,
      "åĴĮæĸĩåĮĸ": 5628,
      "çĤĴ": 5629,
      "å¡ĳæĸĻ": 5630,
      "AN": 5631,
      "max": 5632,
      "çļĦæ¶": 5633,
      "åº¦çļĦ": 5634,
      "å®ĥä¸įä»ħ": 5635,
      "Ġnumer": 5636,
      "Each": 5637,
      "Ġself": 5638,
      "éķ¿æĹ¶éĹ´": 5639,
      "ä»Ĭå¤©": 5640,
      "çĪ¶": 5641,
      "çļĦå¸®åĬ©": 5642,
      "Ġstat": 5643,
      "andas": 5644,
      "Ġsystems": 5645,
      "Ġaddress": 5646,
      "Ġanything": 5647,
      "nces": 5648,
      "å¹ħ": 5649,
      "æī¾åĩº": 5650,
      "Ġnumpy": 5651,
      "Ġflow": 5652,
      "ç§Ł": 5653,
      "åĶ¯": 5654,
      "éĹ®é¢ĺæĪĸéľĢè¦ģ": 5655,
      "WHERE": 5656,
      "åĦ¿ç«¥": 5657,
      "Ġquick": 5658,
      "è¯įæ±ĩ": 5659,
      "64": 5660,
      "ament": 5661,
      "ĠAr": 5662,
      "ç»Ļå®ļçļĦ": 5663,
      "ney": 5664,
      "ä¸ĬæīĢè¿°": 5665,
      "å¼±": 5666,
      "å¤ļæł·æĢ§": 5667,
      "ä¸ºçĶ¨æĪ·": 5668,
      "Ġunt": 5669,
      "Ġdescribe": 5670,
      "çļĦåħī": 5671,
      "åĬłè½½": 5672,
      "ares": 5673,
      "çļĦéķ¿åº¦": 5674,
      "åĪĨè§£": 5675,
      "èİī": 5676,
      "æĽ´å¥½åľ°çĲĨè§£": 5677,
      "aw": 5678,
      "ided": 5679,
      "è¿ĩæ»¤": 5680,
      "2023": 5681,
      "éĿ¢è¯ķ": 5682,
      "ä»¿ä½Ľ": 5683,
      "ç»¼ä¸ĬæīĢè¿°": 5684,
      "è®¤è¯Ĩ": 5685,
      "äº§çĶŁäºĨ": 5686,
      "åĽºå®ļ": 5687,
      "çļĦæ´»åĬ¨": 5688,
      "CD": 5689,
      "Ġpie": 5690,
      "æķ°æį®å®īåħ¨": 5691,
      "æĦŁåıĹåĪ°": 5692,
      "èµĦæĸĻ": 5693,
      "anation": 5694,
      "Ġ+=": 5695,
      "izing": 5696,
      "Ġletter": 5697,
      "ead": 5698,
      "èªī": 5699,
      "bash": 5700,
      "Ġfour": 5701,
      "Ġalgorithm": 5702,
      "Un": 5703,
      "ä¸Ģä»½": 5704,
      "æĢĢ": 5705,
      "String": 5706,
      "ork": 5707,
      "arily": 5708,
      "é¹": 5709,
      "æĪĳä»¬éľĢè¦ģ": 5710,
      "æ¢¯": 5711,
      "åĬŀåħ¬": 5712,
      "orm": 5713,
      "ä½łä»¬": 5714,
      "æ¯Ľ": 5715,
      "ban": 5716,
      "ww": 5717,
      "Ġsorry": 5718,
      "æĿ¥è¶Ĭ": 5719,
      "adr": 5720,
      "Ġaim": 5721,
      "hang": 5722,
      "hai": 5723,
      "å¸®åĬ©çĶ¨æĪ·": 5724,
      "åĳ¨åĽ´": 5725,
      "è¶ĬæĿ¥è¶Ĭ": 5726,
      "ç»ķ": 5727,
      "éĢļå¸¸éľĢè¦ģ": 5728,
      "ĊĊĠĠ": 5729,
      "åħĪè¿Ľ": 5730,
      "ĠOctober": 5731,
      "go": 5732,
      "rodu": 5733,
      "éĴ±": 5734,
      "ÙĨ": 5735,
      "è¯·éĹ®": 5736,
      "Ġext": 5737,
      "Ġimage": 5738,
      "æ¶ĪèĢĹ": 5739,
      "çļĦæŃ¥": 5740,
      "Ġengaging": 5741,
      "John": 5742,
      "ç»ıè¿ĩ": 5743,
      "æĲº": 5744,
      "å¾Īé«ĺåħ´": 5745,
      "Ar": 5746,
      "åı¯ä»¥å°Ŀè¯ķ": 5747,
      "çļĦçĬ": 5748,
      "Ġcolumns": 5749,
      "çİ¯å¢ĥä¿ĿæĬ¤": 5750,
      "éĴ¥": 5751,
      "ä¸Ģä½į": 5752,
      "éĢļè¿ĩè¿ĻäºĽ": 5753,
      "Ġsentences": 5754,
      "å±Ĥæ¬¡": 5755,
      "anish": 5756,
      "å¤±è´¥": 5757,
      "oun": 5758,
      "ï¼ļ**": 5759,
      "Ġweek": 5760,
      "inary": 5761,
      "Ġcreative": 5762,
      "åĩºäºĨ": 5763,
      "vern": 5764,
      "è½¬åŀĭ": 5765,
      "75": 5766,
      "æįŁå¤±": 5767,
      "åĴĮä½¿çĶ¨": 5768,
      "Ġwritten": 5769,
      "Ġdem": 5770,
      "è®¤è¯ģ": 5771,
      "ĠÐ²": 5772,
      "AP": 5773,
      "åĨħç½®": 5774,
      "Ġworks": 5775,
      "ç¾İå¥½": 5776,
      "çļĦçĶ¨æĪ·": 5777,
      "å¾®ä¿¡": 5778,
      "å®£": 5779,
      "Ġissues": 5780,
      ":\",": 5781,
      "Ġalong": 5782,
      "avor": 5783,
      "aking": 5784,
      "Ġprints": 5785,
      "Ġstarted": 5786,
      "Ġkilom": 5787,
      "æĪĲåĪĨ": 5788,
      "è¢«ç§°ä¸º": 5789,
      "é©±åĬ¨": 5790,
      "RL": 5791,
      "ä¸įè¶³": 5792,
      "Ð´": 5793,
      "è²": 5794,
      "çļĦåı¯": 5795,
      "Ġflo": 5796,
      "æİĴæĶ¾": 5797,
      "Ġbreak": 5798,
      "An": 5799,
      "Ġcru": 5800,
      "ä¸ĭè½½": 5801,
      "äºĭé¡¹": 5802,
      "è¿·": 5803,
      "æŃ£å¼ı": 5804,
      "éĴ®": 5805,
      "Ġden": 5806,
      "åĩıè½»": 5807,
      "å®«": 5808,
      "My": 5809,
      "SC": 5810,
      "alculate": 5811,
      "rol": 5812,
      "æıĲä¾ĽæĽ´åĬł": 5813,
      "Ġmedia": 5814,
      "angzhou": 5815,
      "æĽ¿æį¢": 5816,
      "function": 5817,
      "ero": 5818,
      "è½´": 5819,
      "éª¨": 5820,
      "amp": 5821,
      "è°·": 5822,
      "ëĬ": 5823,
      "Ġemot": 5824,
      "Ġnetwork": 5825,
      "Ġbooks": 5826,
      "åı¯ä»¥åĩıå°ĳ": 5827,
      "éĩĬæĶ¾": 5828,
      "from": 5829,
      "ĠPar": 5830,
      "èĴ¸": 5831,
      "Ġsummary": 5832,
      "nown": 5833,
      "åĴĮç»´æĬ¤": 5834,
      "æĹłéĻĲ": 5835,
      "åıĮæĸ¹": 5836,
      "ä¸ĢèĪ¬": 5837,
      "æĹ¦": 5838,
      "ç³»ç»Łä¸Ń": 5839,
      "Ġfull": 5840,
      "Ġmiss": 5841,
      "Ġletters": 5842,
      "çĪ±å¥½": 5843,
      "uation": 5844,
      "çļĦæĭ": 5845,
      "åīª": 5846,
      "åĽ¾å½¢": 5847,
      "æĪĺçķ¥": 5848,
      "Ġachieve": 5849,
      "Cl": 5850,
      "åĴĮä¼ĺåĮĸ": 5851,
      "è¿ĩåİ»": 5852,
      "éĢĤéĩı": 5853,
      "ä¸įä»ħä»ħ": 5854,
      "dule": 5855,
      "ä»¥ä¸ĭæĺ¯ä¸ĢäºĽå»ºè®®": 5856,
      "åıī": 5857,
      "é½": 5858,
      "Ġ**ãĢĬ": 5859,
      "çļĦæīĭ": 5860,
      "å¹¸ç¦ı": 5861,
      "çĶľ": 5862,
      "æĹ¥å¿Ĺ": 5863,
      "alk": 5864,
      "Ġleg": 5865,
      "ä¾ĭåŃĲä¸Ń": 5866,
      "Ġenc": 5867,
      "ç§ĳåŃ¦å®¶": 5868,
      "æ¬¢è¿İéļıæĹ¶": 5869,
      "çīĪæĿĥ": 5870,
      "ĊĠĠĠĠĊĠĠĠ": 5871,
      "Sp": 5872,
      "Ġinitial": 5873,
      "Ġsure": 5874,
      "Ġfac": 5875,
      "åĩĿ": 5876,
      "å¿½": 5877,
      "Ġtranslation": 5878,
      "Ġfamily": 5879,
      "ä¾¿æį·": 5880,
      "Ġconversations": 5881,
      "æļ´": 5882,
      "ĠGre": 5883,
      "ration": 5884,
      "¹é¥": 5885,
      "è¿Ļä¸¤ä¸ª": 5886,
      "ä¼¼ä¹İ": 5887,
      "æµ®": 5888,
      "¹é¥ª": 5889,
      "åĽŀæĶ¶": 5890,
      "NLP": 5891,
      "æĭ¼": 5892,
      "Ġdr": 5893,
      "Ġexperien": 5894,
      "æĵİ": 5895,
      "med": 5896,
      "Ġprofess": 5897,
      "First": 5898,
      "Ġinflu": 5899,
      "å¯¸": 5900,
      "ä¸įç¡®å®ļ": 5901,
      "Int": 5902,
      "ä¼łæĦŁ": 5903,
      "Ġfunctions": 5904,
      "å£¤": 5905,
      "åĽ¢éĺŁåĲĪä½ľ": 5906,
      "ä»¥ä¸ĭåĩłç§į": 5907,
      "like": 5908,
      "åĬ¨ä½ľ": 5909,
      "é£ŀè¡Į": 5910,
      "Ġdream": 5911,
      "èĢ³": 5912,
      "å¼ķæĵİ": 5913,
      "Ġpa": 5914,
      "å¤ļæĸ¹éĿ¢": 5915,
      "äº§ä¸ļ": 5916,
      "Where": 5917,
      "Ġauth": 5918,
      "åįĩçº§": 5919,
      "æ´¾": 5920,
      "Ġgreen": 5921,
      "ç¾İåĳ³": 5922,
      "osp": 5923,
      "æĹ¶åħī": 5924,
      "ends": 5925,
      "Ġcultural": 5926,
      "Ġkilometers": 5927,
      "ãĤĮ": 5928,
      "æ¥¼": 5929,
      "ech": 5930,
      "æ¾": 5931,
      "èĩªèº«": 5932,
      "åŃĲçļĦ": 5933,
      "åī©": 5934,
      "ffic": 5935,
      "70": 5936,
      "Ġfra": 5937,
      "Ġque": 5938,
      "äº§åĵģçļĦ": 5939,
      "ëĭ¤": 5940,
      "Ġstre": 5941,
      ")ï¼Į": 5942,
      "Sub": 5943,
      "çĽĳçĿ£": 5944,
      "iting": 5945,
      "ä½ĵèĤ²": 5946,
      "è¿Ļæ®µä»£çłģ": 5947,
      "è´·æ¬¾": 5948,
      "å®¶å±ħ": 5949,
      "Ġshow": 5950,
      "ATE": 5951,
      "ictionary": 5952,
      "çĶ·": 5953,
      "implify": 5954,
      "æµģéĩı": 5955,
      "ç¾İä¸½": 5956,
      "Ġscience": 5957,
      "Ġoperations": 5958,
      "ç¾¤ä½ĵ": 5959,
      "Ġminutes": 5960,
      "ium": 5961,
      "æĹ¶éĹ´åĴĮ": 5962,
      "Ġmaintain": 5963,
      "ervice": 5964,
      "ä¼Ļä¼´": 5965,
      "28": 5966,
      "ä½ľèĢħ": 5967,
      "Ġmovie": 5968,
      "{\\": 5969,
      "Ġdifference": 5970,
      "è´ŁéĿ¢": 5971,
      "ĠéĢīæĭ©": 5972,
      "left": 5973,
      "éĽħ": 5974,
      "çĶµè¯Ŀ": 5975,
      "Ġconsider": 5976,
      "æİ¥è§¦": 5977,
      "cel": 5978,
      "Why": 5979,
      "ĠFrench": 5980,
      "Ġprec": 5981,
      "Ġleadership": 5982,
      "ä¸ºæĤ¨": 5983,
      "åĪĹåĩº": 5984,
      "RE": 5985,
      "ç½ĳé¡µ": 5986,
      "Windows": 5987,
      "ä¿ĿçķĻ": 5988,
      "æĮīéĴ®": 5989,
      "çļĦæ¦Ĥçİĩ": 5990,
      "åı£åĳ³": 5991,
      "Ġmatrix": 5992,
      "However": 5993,
      "ĠÐ¿": 5994,
      "èĮĥåĽ´åĨħ": 5995,
      "Ġhistor": 5996,
      "çĹĩçĬ¶": 5997,
      "æŃ»": 5998,
      "çī©ä½ĵ": 5999,
      "æīĭæ®µ": 6000,
      "ä¹ĲæĦı": 6001,
      "ä¼łæĦŁåĻ¨": 6002,
      "æķ¢": 6003,
      "Ġmajor": 6004,
      "Ġlocal": 6005,
      "å¥ĳ": 6006,
      "Ġprote": 6007,
      "æľ¬ä¹¦": 6008,
      "ç»ıå¸¸": 6009,
      "åľŁå£¤": 6010,
      "Ġsymbol": 6011,
      "æľŁå¾ħ": 6012,
      "ä¹Ĳè¶£": 6013,
      "Ġcontin": 6014,
      "Ġitems": 6015,
      "çıį": 6016,
      "å³°": 6017,
      "DP": 6018,
      "Ġpred": 6019,
      "Ġ2022": 6020,
      "æıĴåħ¥": 6021,
      "lst": 6022,
      "Ġ21": 6023,
      "åī²": 6024,
      "èµĦæºĲçļĦ": 6025,
      "éĤĢ": 6026,
      "è¿Ļåı¥è¯Ŀ": 6027,
      "è¾ĥé«ĺ": 6028,
      "çļĦæ¸¸": 6029,
      "æ±ģ": 6030,
      "ills": 6031,
      "æĬķèµĦèĢħ": 6032,
      "åı¯èĥ½å¯¼èĩ´": 6033,
      "ç±»åĪ«": 6034,
      "éĿŀå¸¸éĩįè¦ģçļĦ": 6035,
      "Ġpassword": 6036,
      "Ġearly": 6037,
      "Ġhaven": 6038,
      "åĻª": 6039,
      "éģĵè·¯": 6040,
      "Ġlearn": 6041,
      "æ¿ĢåĬ±": 6042,
      "åĩºè¡Į": 6043,
      "ee": 6044,
      "raft": 6045,
      "plot": 6046,
      "åĴĮçĲĨè§£": 6047,
      "Ġelect": 6048,
      "nect": 6049,
      "Ġfigure": 6050,
      "çļĦæĶ¯æĮģ": 6051,
      "Ġspecify": 6052,
      "ateg": 6053,
      "å¤§èĦĳ": 6054,
      "ĠHangzhou": 6055,
      "æĢ»æĺ¯": 6056,
      "Ġmodern": 6057,
      "ëĬĶ": 6058,
      "Ġ\\):": 6059,
      "Ġcrucial": 6060,
      "æľĢæĸ°": 6061,
      "mp": 6062,
      "è§£çŃĶ": 6063,
      "ird": 6064,
      "ĠĠĠĠĠĠĠĠ": 6065,
      "åı¯ä»¥è¢«": 6066,
      "æŁĲç§į": 6067,
      "ç³ķ": 6068,
      "Ġconstant": 6069,
      "48": 6070,
      "AC": 6071,
      "éľĢè¦ģèĢĥèĻĳ": 6072,
      "Ġexec": 6073,
      "æľŁéĹ´": 6074,
      "ä¼ĺæĥł": 6075,
      "Ġet": 6076,
      "çĽ¸ä¿¡": 6077,
      "ĠEl": 6078,
      "Ġperiod": 6079,
      "Ġsecre": 6080,
      "æĪĳæĥ³äºĨè§£ä¸Ģä¸ĭ": 6081,
      "å¸¦æĿ¥äºĨ": 6082,
      "Ġapplication": 6083,
      "çļĦåĩĨç¡®": 6084,
      "åįķåħĥ": 6085,
      "èĢĥè¯ķ": 6086,
      "ĠUS": 6087,
      "åĪĽä¸ļ": 6088,
      "æĦŁåĴĮ": 6089,
      "è¯¢éĹ®": 6090,
      "éĽĨä¸Ń": 6091,
      "apan": 6092,
      "Pr": 6093,
      "æĹ§": 6094,
      "è´Ŀ": 6095,
      "à¸²": 6096,
      "æıĲéĨĴ": 6097,
      "è°ĥèĬĤ": 6098,
      "åı¤èĢģ": 6099,
      "Ġrecognized": 6100,
      "ç¨³å®ļæĢ§": 6101,
      "åıĳæĮ¥": 6102,
      "IT": 6103,
      "åĺ": 6104,
      "åľ¨ä½¿çĶ¨": 6105,
      "åıĳå±ķçļĦ": 6106,
      "æĭĮ": 6107,
      "çĿĽ": 6108,
      "Ġchild": 6109,
      "ï¼Į\"": 6110,
      "çļĦæĽ": 6111,
      "å¿«ä¹Ĳ": 6112,
      "Ġagain": 6113,
      "Ġfrequ": 6114,
      "çļĦæĵ": 6115,
      "ä¸ºä½ł": 6116,
      "å®¡æŁ¥": 6117,
      "ĠIs": 6118,
      "åĲİç»Ń": 6119,
      "Ġtraditional": 6120,
      "Ġcrit": 6121,
      "ä¸ĢæĹ¦": 6122,
      "èĥ½åĬĽåĴĮ": 6123,
      "head": 6124,
      "å¿ĥçĲĨåģ¥åº·": 6125,
      "Ġexist": 6126,
      "Ġsuccess": 6127,
      "å¼ºå¤§": 6128,
      "æĿĥçĽĬ": 6129,
      "è¾¹ç¼ĺ": 6130,
      "atch": 6131,
      "oll": 6132,
      "åĶ¯ä¸Ģ": 6133,
      "çļĦçĬ¶": 6134,
      "Ġnon": 6135,
      "éĢļè¿ĩåĪĨæŀĲ": 6136,
      "æ°´æŀľ": 6137,
      "çļĦæĮĩå¯¼": 6138,
      "Google": 6139,
      "çļĦéĩįè¦ģæĢ§": 6140,
      "Ġben": 6141,
      "sin": 6142,
      "å¤«": 6143,
      "çĥŁ": 6144,
      "æıĲäº¤": 6145,
      "æĽ´æľīæķĪåľ°": 6146,
      "æĹłéľĢ": 6147,
      "Ġsearch": 6148,
      "çĲĨå¿µ": 6149,
      "Ġquadr": 6150,
      "èģĮä½į": 6151,
      "Ġsummar": 6152,
      "Ġchalleng": 6153,
      "å°±ä¸ļ": 6154,
      "cm": 6155,
      "æĦŁæŁĵ": 6156,
      "åĳ¢": 6157,
      "Ġderivative": 6158,
      "èµı": 6159,
      "Ġconsole": 6160,
      "çĶµåķĨ": 6161,
      "ç¥ŀç§ĺ": 6162,
      "Ġdistance": 6163,
      "ĠSpanish": 6164,
      "Ġefficient": 6165,
      "ç½ª": 6166,
      "åĢ¼å¾Ĺ": 6167,
      "åĽ¢éĺŁçļĦ": 6168,
      "æĶ¿æ²»": 6169,
      "hello": 6170,
      "action": 6171,
      "lex": 6172,
      "oose": 6173,
      "Ġfounder": 6174,
      "å¤§äºİ": 6175,
      "Ġstudents": 6176,
      "çĦ¦èĻĳ": 6177,
      "ä½Ĩåľ¨": 6178,
      "Ġcustomer": 6179,
      "://": 6180,
      "AM": 6181,
      "å§ĵ": 6182,
      "æ°ĶåĢĻåıĺåĮĸ": 6183,
      "Ġeconomic": 6184,
      "sion": 6185,
      "ä¸Ģå®ļçļĦ": 6186,
      "éħ±": 6187,
      "Ġgen": 6188,
      "Ġdance": 6189,
      "èĦī": 6190,
      "è¡¨æĺİ": 6191,
      "èĩªçĦ¶çļĦ": 6192,
      "Ġcontinu": 6193,
      "à¦": 6194,
      "enerate": 6195,
      "éĤĢè¯·": 6196,
      "Ġquant": 6197,
      "åķĨåĬ¡": 6198,
      "è®¤çŁ¥": 6199,
      "Ġkeep": 6200,
      "enn": 6201,
      "éĺ¿éĩĮäºĳçļĦ": 6202,
      "Ġindividuals": 6203,
      "Ġcertain": 6204,
      "add": 6205,
      "Ġsust": 6206,
      "ender": 6207,
      "Ġæµĭè¯ķ": 6208,
      "è¿Ł": 6209,
      "åī¯": 6210,
      "usion": 6211,
      "soft": 6212,
      "Ġlimit": 6213,
      "Ñĩ": 6214,
      "è¿ģ": 6215,
      "æĿ¥è®¡ç®Ĺ": 6216,
      "ights": 6217,
      "æ³³": 6218,
      "çļĦæĻºèĥ½": 6219,
      "çļĦæĬķèµĦ": 6220,
      "No": 6221,
      "å¸®åĬ©ä¼ģä¸ļ": 6222,
      "Ġresults": 6223,
      "æĩ": 6224,
      "æķ°æį®å¤ĦçĲĨ": 6225,
      "ĠPer": 6226,
      "Ġfamous": 6227,
      "åħ¬åĽŃ": 6228,
      "çļĦæŁ": 6229,
      "åħ³éĹŃ": 6230,
      "è¯·åĳĬè¯īæĪĳ": 6231,
      "oss": 6232,
      "Ġ<=": 6233,
      "çł´åĿı": 6234,
      "çĶŁç´ł": 6235,
      "æĪĳä»¬ä½¿çĶ¨": 6236,
      "where": 6237,
      "ä¸Ģå¤©": 6238,
      "æİ¥è¿ĳ": 6239,
      "ECS": 6240,
      "cient": 6241,
      "ĠShe": 6242,
      "file": 6243,
      "ology": 6244,
      "ç¼ĸåĨĻä¸Ģä¸ª": 6245,
      "}}{": 6246,
      "åı¯èĥ½åľ¨": 6247,
      "ÑģÑĤ": 6248,
      "Ġconversation": 6249,
      "Ġmusic": 6250,
      "çļĦåİĨåı²": 6251,
      "çĽ¸åºĶçļĦ": 6252,
      "è¿ĻåĮħæĭ¬": 6253,
      "æŃ¦": 6254,
      "åħ³éĶ®è¯į": 6255,
      "Ġtravel": 6256,
      "Ġsustain": 6257,
      "æµıè§ĪåĻ¨": 6258,
      "\"\"": 6259,
      "çļĦç¥": 6260,
      "Ġdescript": 6261,
      "Ġproducts": 6262,
      "fect": 6263,
      "Ġabove": 6264,
      "Ġsubject": 6265,
      "Ġrece": 6266,
      "æĪĲçĨŁ": 6267,
      "è¾¾æĳ©": 6268,
      "è´¦åı·": 6269,
      "LL": 6270,
      "Ġho": 6271,
      "èį·": 6272,
      "åĽłä¸ºå®ĥ": 6273,
      "ina": 6274,
      "ç´§å¼ł": 6275,
      "è°ľ": 6276,
      "æĶ¾åľ¨": 6277,
      "Ġsat": 6278,
      "Ġcannot": 6279,
      "èĤĮèĤī": 6280,
      "aus": 6281,
      "æıĲç¤º": 6282,
      "åľ¨è¿Ļä¸ªä¾ĭåŃĲä¸Ń": 6283,
      "Ġcy": 6284,
      "Ġ36": 6285,
      "adem": 6286,
      "èıľåįķ": 6287,
      "çļĦæĵįä½ľ": 6288,
      "class": 6289,
      "è¾ĥä½İ": 6290,
      "gative": 6291,
      "po": 6292,
      "å¼ĥ": 6293,
      "ÙĪ": 6294,
      "çĴ": 6295,
      "rel": 6296,
      "ently": 6297,
      "æ¤Ĵ": 6298,
      "æ¶µçĽĸ": 6299,
      "ann": 6300,
      "ä¾¿åĪ©": 6301,
      "çļĦæŃ¥éª¤": 6302,
      "67": 6303,
      "Ġ.": 6304,
      "åĢŁ": 6305,
      "çļĦçİ¯å¢ĥ": 6306,
      "åĽŀå½Ĵ": 6307,
      "Ġcolors": 6308,
      "Ġfriends": 6309,
      "html": 6310,
      "æĭĵ": 6311,
      "éĿŀå¸¸æľī": 6312,
      "æĪĸæľįåĬ¡": 6313,
      "è©": 6314,
      "ä¹ı": 6315,
      "åľ¨ä¸įåĲĮ": 6316,
      "å®¡è®¡": 6317,
      "123": 6318,
      "åĵªä¸ª": 6319,
      "å²Ľ": 6320,
      "Ġcomplete": 6321,
      "Ġprocessing": 6322,
      "ĠShang": 6323,
      "Ġcomprehensive": 6324,
      "ouse": 6325,
      "å½¼": 6326,
      "åĲĪçº¦": 6327,
      "æ¡Į": 6328,
      "æĮģç»ŃåŃ¦ä¹ł": 6329,
      "Ġindic": 6330,
      "Ġbuild": 6331,
      "HTML": 6332,
      "æ³Ħéľ²": 6333,
      "Ġcomb": 6334,
      "çĺ": 6335,
      "çĶ¨æĢ§": 6336,
      "å·²çŁ¥": 6337,
      "ĠYork": 6338,
      "æĽ´å®¹æĺĵ": 6339,
      "ç¬¦åı·": 6340,
      "æ¶Īæģ¯": 6341,
      "Ġwarm": 6342,
      "çº¯": 6343,
      "åĮ»åŃ¦": 6344,
      "å¤Ħäºİ": 6345,
      "da": 6346,
      "Ġfall": 6347,
      "Ġliter": 6348,
      "ĠPl": 6349,
      "Ġcur": 6350,
      "çļĦè®¾è®¡": 6351,
      "ĠOr": 6352,
      "ç»ĦæĪĲéĥ¨åĪĨ": 6353,
      "ç¼ĵè§£": 6354,
      "Ġprimarily": 6355,
      "åĨħå¿ĥ": 6356,
      "çĲĨæĥ³": 6357,
      "åĩºçļĦ": 6358,
      "æ±¤": 6359,
      "è¡¨æł¼": 6360,
      "erman": 6361,
      "htt": 6362,
      "è¿Ļä½¿å¾Ĺ": 6363,
      "æ¡Īä¾ĭ": 6364,
      "å©ļ": 6365,
      "éľĢè¦ģæ³¨æĦıçļĦæĺ¯": 6366,
      "Ġintrodu": 6367,
      "åİ»éĻ¤": 6368,
      "Ġcompanies": 6369,
      "down": 6370,
      "Ġexchange": 6371,
      "åĴĮåıĳå±ķ": 6372,
      "å¾Īä¹ĲæĦı": 6373,
      "é¸£": 6374,
      "Ġsubsidi": 6375,
      "æĽ´é«ĺæķĪ": 6376,
      "ä¸ªäººä¿¡æģ¯": 6377,
      "Pythonä»£çłģ": 6378,
      "ä¸ĭéĿ¢æĺ¯": 6379,
      "ging": 6380,
      "æĮĩå®ļ": 6381,
      "åį«çĶŁ": 6382,
      "æĻ¨": 6383,
      "çļĦçĿ": 6384,
      "åºĶçĶ¨åľºæĻ¯": 6385,
      "ior": 6386,
      "æī«": 6387,
      "çĶ¨æĪ·åı¯ä»¥": 6388,
      "ĠGoogle": 6389,
      "oin": 6390,
      "ä¸įéľĢè¦ģ": 6391,
      "æıĲä¾Ľå¸®åĬ©": 6392,
      "esp": 6393,
      "æıĲä¾ĽçļĦ": 6394,
      "ç»ĻäºĪ": 6395,
      "ĠZhang": 6396,
      "ëĭĪ": 6397,
      "åı¯èĥ½æľī": 6398,
      "Ġstyle": 6399
    },
    "merges": [
      [
        "ï",
        "¼"
      ],
      [
        "ä",
        "¸"
      ],
      [
        "ï¼",
        "Į"
      ],
      [
        "ç",
        "ļ"
      ],
      [
        "çļ",
        "Ħ"
      ],
      [
        "Ġ",
        "t"
      ],
      [
        "ã",
        "Ģ"
      ],
      [
        "Ġ",
        "a"
      ],
      [
        "h",
        "e"
      ],
      [
        "i",
        "n"
      ],
      [
        "ãĢ",
        "Ĥ"
      ],
      [
        "ä",
        "º"
      ],
      [
        "ä",
        "»"
      ],
      [
        "å",
        "ı"
      ],
      [
        "r",
        "e"
      ],
      [
        "ä",
        "½"
      ],
      [
        "æ",
        "ľ"
      ],
      [
        "Ġt",
        "he"
      ],
      [
        "o",
        "n"
      ],
      [
        "e",
        "r"
      ],
      [
        "*",
        "*"
      ],
      [
        "è",
        "¿"
      ],
      [
        "a",
        "t"
      ],
      [
        "å",
        "ħ"
      ],
      [
        "Ġ",
        "s"
      ],
      [
        "Ġ",
        "c"
      ],
      [
        "å",
        "Ī"
      ],
      [
        "Ġ",
        "o"
      ],
      [
        "å",
        "®"
      ],
      [
        "ç",
        "Ķ"
      ],
      [
        "æ",
        "Ī"
      ],
      [
        "å",
        "Ĭ"
      ],
      [
        "i",
        "s"
      ],
      [
        "a",
        "n"
      ],
      [
        "o",
        "u"
      ],
      [
        "e",
        "n"
      ],
      [
        "å",
        "ľ"
      ],
      [
        "e",
        "s"
      ],
      [
        "å",
        "¤"
      ],
      [
        "å",
        "Ĵ"
      ],
      [
        "Ġ",
        "Ġ"
      ],
      [
        "æ",
        "ĺ"
      ],
      [
        "åĴ",
        "Į"
      ],
      [
        "å",
        "Ĳ"
      ],
      [
        "o",
        "r"
      ],
      [
        "ï¼",
        "ļ"
      ],
      [
        "i",
        "t"
      ],
      [
        "Ġ",
        "w"
      ],
      [
        "æ",
        "ķ"
      ],
      [
        "Ġ",
        "f"
      ],
      [
        "ç",
        "»"
      ],
      [
        "è",
        "¯"
      ],
      [
        "Ġ",
        "p"
      ],
      [
        "ãĢ",
        "ģ"
      ],
      [
        "Ġa",
        "n"
      ],
      [
        "æ",
        "ĸ"
      ],
      [
        "è",
        "®"
      ],
      [
        "ä¸",
        "Ģ"
      ],
      [
        "in",
        "g"
      ],
      [
        "Ġ",
        "m"
      ],
      [
        "a",
        "l"
      ],
      [
        "Ġ",
        "in"
      ],
      [
        "Ġo",
        "f"
      ],
      [
        "ĥ",
        "½"
      ],
      [
        "é",
        "Ģ"
      ],
      [
        "æĺ",
        "¯"
      ],
      [
        "ä»",
        "¥"
      ],
      [
        "Ġ",
        "**"
      ],
      [
        "åı",
        "¯"
      ],
      [
        "l",
        "e"
      ],
      [
        "å",
        "Ń"
      ],
      [
        "Ġ",
        "b"
      ],
      [
        "Ġt",
        "o"
      ],
      [
        "ä",
        "¹"
      ],
      [
        "ä¸",
        "ª"
      ],
      [
        "å",
        "º"
      ],
      [
        "çĶ",
        "¨"
      ],
      [
        "åľ",
        "¨"
      ],
      [
        "a",
        "r"
      ],
      [
        "i",
        "on"
      ],
      [
        "è",
        "ĥ½"
      ],
      [
        "Ġ",
        "d"
      ],
      [
        "**",
        "ï¼ļ"
      ],
      [
        "i",
        "c"
      ],
      [
        "Ġan",
        "d"
      ],
      [
        "å",
        "°"
      ],
      [
        "æ",
        "Ĺ"
      ],
      [
        "ä",
        "¼"
      ],
      [
        "é",
        "ĩ"
      ],
      [
        "å",
        "¸"
      ],
      [
        "e",
        "d"
      ],
      [
        "å",
        "Į"
      ],
      [
        "è",
        "§"
      ],
      [
        "Ġ",
        "y"
      ],
      [
        "å",
        "Ľ"
      ],
      [
        "è",
        "¡"
      ],
      [
        "ä¸",
        "Ń"
      ],
      [
        "å",
        "¯"
      ],
      [
        "a",
        "s"
      ],
      [
        "æķ",
        "°"
      ],
      [
        "å",
        "ĩ"
      ],
      [
        "r",
        "o"
      ],
      [
        "è¿",
        "Ļ"
      ],
      [
        "Ġ",
        "is"
      ],
      [
        "¦",
        "Ĥ"
      ],
      [
        "æ",
        "Ŀ"
      ],
      [
        "æľ",
        "ī"
      ],
      [
        "Ġ",
        "n"
      ],
      [
        "å",
        "¼"
      ],
      [
        "Ġy",
        "ou"
      ],
      [
        "æ",
        "Ģ"
      ],
      [
        "ä",
        "¿"
      ],
      [
        "å",
        "¦Ĥ"
      ],
      [
        "æ",
        "ŀ"
      ],
      [
        "Ġ",
        "l"
      ],
      [
        "å",
        "Ĩ"
      ],
      [
        "ç",
        "Ń"
      ],
      [
        "ç",
        "İ"
      ],
      [
        "åı¯",
        "ä»¥"
      ],
      [
        "é",
        "Ĺ"
      ],
      [
        "ç",
        "§"
      ],
      [
        "Ġ",
        "e"
      ],
      [
        "è",
        "¦"
      ],
      [
        "ç",
        "Ľ"
      ],
      [
        "ç",
        "ī"
      ],
      [
        "ä¸",
        "į"
      ],
      [
        "ä¸",
        "º"
      ],
      [
        "çļĦ",
        "æ"
      ],
      [
        "è¦",
        "ģ"
      ],
      [
        "ç",
        "Ĳ"
      ],
      [
        "Ġ",
        "re"
      ],
      [
        "äº",
        "Ĩ"
      ],
      [
        "å",
        "¹"
      ],
      [
        "en",
        "t"
      ],
      [
        "c",
        "t"
      ],
      [
        "å",
        "·"
      ],
      [
        "æ",
        "ı"
      ],
      [
        "Ġ",
        "h"
      ],
      [
        "è",
        "Ģ"
      ],
      [
        "é",
        "¢"
      ],
      [
        "s",
        "t"
      ],
      [
        "æ",
        "³"
      ],
      [
        "æ",
        "ī"
      ],
      [
        "Ċ",
        "ĠĠ"
      ],
      [
        "æ",
        "Ĭ"
      ],
      [
        "ä",
        "¾"
      ],
      [
        "æ",
        "ł"
      ],
      [
        "e",
        "t"
      ],
      [
        "æ",
        "į"
      ],
      [
        "ä½",
        "ł"
      ],
      [
        "Ġ",
        "I"
      ],
      [
        "æĹ",
        "¶"
      ],
      [
        "o",
        "m"
      ],
      [
        "Ġt",
        "h"
      ],
      [
        "e",
        "l"
      ],
      [
        "äº",
        "º"
      ],
      [
        "å",
        "į"
      ],
      [
        "`",
        "`"
      ],
      [
        "Ġ",
        "="
      ],
      [
        "o",
        "w"
      ],
      [
        "Ġ",
        "\\"
      ],
      [
        "å",
        "½"
      ],
      [
        "æı",
        "Ĳ"
      ],
      [
        "çĲ",
        "Ĩ"
      ],
      [
        "äº",
        "İ"
      ],
      [
        "u",
        "m"
      ],
      [
        "å",
        "¾"
      ],
      [
        "æĪ",
        "ĸ"
      ],
      [
        "i",
        "d"
      ],
      [
        "å¯",
        "¹"
      ],
      [
        "â",
        "Ģ"
      ],
      [
        "æĪ",
        "ĳ"
      ],
      [
        "çŃ",
        "ī"
      ],
      [
        "æ",
        "İ"
      ],
      [
        "ä¸Ģ",
        "ä¸ª"
      ],
      [
        "i",
        "m"
      ],
      [
        "éĢ",
        "ļ"
      ],
      [
        "é",
        "Ŀ"
      ],
      [
        "æĢ",
        "§"
      ],
      [
        "è",
        "´"
      ],
      [
        "è¿",
        "ĩ"
      ],
      [
        "c",
        "e"
      ],
      [
        "è¡",
        "Į"
      ],
      [
        "ç",
        "®"
      ],
      [
        "ä½",
        "¿"
      ],
      [
        "æ",
        "Į"
      ],
      [
        "v",
        "e"
      ],
      [
        "æ",
        "Ķ"
      ],
      [
        "è",
        "ĩ"
      ],
      [
        "æ",
        "ĭ"
      ],
      [
        "Ġ",
        "1"
      ],
      [
        "Ġ",
        "u"
      ],
      [
        "æĸ",
        "¹"
      ],
      [
        "i",
        "l"
      ],
      [
        "çĶ",
        "Ł"
      ],
      [
        "æį",
        "®"
      ],
      [
        "æĪ",
        "Ĳ"
      ],
      [
        "at",
        "ion"
      ],
      [
        "åŃ",
        "¦"
      ],
      [
        "æ",
        "Ľ"
      ],
      [
        "Ġ",
        "g"
      ],
      [
        "æ",
        "Ń"
      ],
      [
        "å",
        "ĵ"
      ],
      [
        "t",
        "h"
      ],
      [
        "er",
        "s"
      ],
      [
        "a",
        "m"
      ],
      [
        "ä½",
        "ľ"
      ],
      [
        "i",
        "g"
      ],
      [
        "o",
        "l"
      ],
      [
        "u",
        "t"
      ],
      [
        "å",
        "¿"
      ],
      [
        "Ġf",
        "or"
      ],
      [
        "ä¸",
        "ĭ"
      ],
      [
        "æ",
        "Ħ"
      ],
      [
        "é",
        "ľ"
      ],
      [
        "i",
        "f"
      ],
      [
        "ä¼",
        "ļ"
      ],
      [
        "æĿ",
        "¥"
      ],
      [
        "å",
        "¥"
      ],
      [
        "åĮ",
        "ĸ"
      ],
      [
        "åĪ",
        "°"
      ],
      [
        "åĪ",
        "Ĩ"
      ],
      [
        "è",
        "¾"
      ],
      [
        "å®",
        "ļ"
      ],
      [
        "ä¿",
        "Ŀ"
      ],
      [
        "æĽ",
        "´"
      ],
      [
        "äº",
        "Ľ"
      ],
      [
        "ç",
        "¡"
      ],
      [
        "æ",
        "µ"
      ],
      [
        "é",
        "Ļ"
      ],
      [
        "Ġo",
        "r"
      ],
      [
        "Ġa",
        "s"
      ],
      [
        "éľ",
        "Ģ"
      ],
      [
        "å",
        "±"
      ],
      [
        "ä»",
        "¬"
      ],
      [
        "Ġ",
        "T"
      ],
      [
        "ç",
        "¨"
      ],
      [
        "Ġ",
        "A"
      ],
      [
        "ä½",
        "ĵ"
      ],
      [
        "åĬ",
        "¨"
      ],
      [
        "åı",
        "ĳ"
      ],
      [
        "ä½¿",
        "çĶ¨"
      ],
      [
        "è§",
        "£"
      ],
      [
        "Ġ",
        "C"
      ],
      [
        "Ġ",
        "\""
      ],
      [
        "q",
        "u"
      ],
      [
        "è¿",
        "Ľ"
      ],
      [
        "æŀ",
        "ľ"
      ],
      [
        "Ġp",
        "ro"
      ],
      [
        "Ġc",
        "an"
      ],
      [
        "l",
        "y"
      ],
      [
        "u",
        "r"
      ],
      [
        "é",
        "ĺ"
      ],
      [
        "åº",
        "Ķ"
      ],
      [
        "Ġ",
        "2"
      ],
      [
        "å",
        "ĳ"
      ],
      [
        "Ġ",
        "-"
      ],
      [
        "u",
        "l"
      ],
      [
        "c",
        "h"
      ],
      [
        "å",
        "Ł"
      ],
      [
        "ä¸",
        "İ"
      ],
      [
        "åľ",
        "°"
      ],
      [
        "ï¼",
        "ī"
      ],
      [
        "ï¼",
        "Ī"
      ],
      [
        "æ³",
        "ķ"
      ],
      [
        "at",
        "e"
      ],
      [
        "è",
        "µ"
      ],
      [
        "r",
        "a"
      ],
      [
        "åĲ",
        "Į"
      ],
      [
        "é",
        "«"
      ],
      [
        "ä¸",
        "Ĭ"
      ],
      [
        "Ġ",
        "it"
      ],
      [
        "é«",
        "ĺ"
      ],
      [
        "å¤",
        "§"
      ],
      [
        "ç",
        "½"
      ],
      [
        "ç¡",
        "®"
      ],
      [
        "it",
        "h"
      ],
      [
        "æķ°",
        "æį®"
      ],
      [
        "is",
        "t"
      ],
      [
        "åĲ",
        "Ī"
      ],
      [
        "a",
        "b"
      ],
      [
        "s",
        "e"
      ],
      [
        "æĸ",
        "ĩ"
      ],
      [
        "è",
        "½"
      ],
      [
        "æ",
        "¯"
      ],
      [
        "åº",
        "¦"
      ],
      [
        "åı¯",
        "èĥ½"
      ],
      [
        "èĩ",
        "ª"
      ],
      [
        "Ġs",
        "t"
      ],
      [
        "å®",
        "ŀ"
      ],
      [
        "Ġ",
        "he"
      ],
      [
        "g",
        "e"
      ],
      [
        "éĩ",
        "ı"
      ],
      [
        "è®",
        "¡"
      ],
      [
        "ç¨",
        "ĭ"
      ],
      [
        "ç",
        "º"
      ],
      [
        "å",
        "İ"
      ],
      [
        "æ",
        "°"
      ],
      [
        "å¤",
        "ļ"
      ],
      [
        "Ġth",
        "at"
      ],
      [
        "æ",
        "ĥ"
      ],
      [
        "o",
        "t"
      ],
      [
        "åĬ",
        "Ľ"
      ],
      [
        "åĬ",
        "ł"
      ],
      [
        "çİ",
        "°"
      ],
      [
        "åĩ",
        "º"
      ],
      [
        "ç",
        "¤"
      ],
      [
        "Ġw",
        "ith"
      ],
      [
        "Ġb",
        "e"
      ],
      [
        "ç",
        "³"
      ],
      [
        "ä¸",
        "ļ"
      ],
      [
        "Ġ",
        "v"
      ],
      [
        "ç§",
        "į"
      ],
      [
        "éĿ",
        "¢"
      ],
      [
        "å¸",
        "¸"
      ],
      [
        "éĹ",
        "´"
      ],
      [
        "åĬ",
        "¡"
      ],
      [
        "è®",
        "¾"
      ],
      [
        "æĬ",
        "Ģ"
      ],
      [
        "es",
        "t"
      ],
      [
        "å",
        "»"
      ],
      [
        "ä¾",
        "Ľ"
      ],
      [
        "Ġc",
        "on"
      ],
      [
        "éĹ",
        "®"
      ],
      [
        "åĬ",
        "©"
      ],
      [
        "æľ",
        "¯"
      ],
      [
        "æ",
        "´"
      ],
      [
        "Ġ",
        "on"
      ],
      [
        "æ",
        "±"
      ],
      [
        "Ġm",
        "o"
      ],
      [
        "æ",
        "Ļ"
      ],
      [
        "å°",
        "Ĩ"
      ],
      [
        "``",
        "`"
      ],
      [
        "å",
        "¢"
      ],
      [
        "è¡",
        "¨"
      ],
      [
        "é",
        "ģ"
      ],
      [
        "'",
        "s"
      ],
      [
        "åħ",
        "³"
      ],
      [
        "éľĢ",
        "è¦ģ"
      ],
      [
        "Ġ",
        "S"
      ],
      [
        "é¢",
        "ĺ"
      ],
      [
        "å·",
        "¥"
      ],
      [
        "#",
        "#"
      ],
      [
        "å»",
        "º"
      ],
      [
        "åħ",
        "¶"
      ],
      [
        "éĩ",
        "į"
      ],
      [
        "æľ",
        "º"
      ],
      [
        "i",
        "r"
      ],
      [
        "æĸ",
        "°"
      ],
      [
        "çī",
        "©"
      ],
      [
        "éĢļ",
        "è¿ĩ"
      ],
      [
        "åħ",
        "¨"
      ],
      [
        "æıĲ",
        "ä¾Ľ"
      ],
      [
        "ä¿",
        "¡"
      ],
      [
        "ç",
        "Ħ"
      ],
      [
        "ç³",
        "»"
      ],
      [
        "æĮ",
        "ģ"
      ],
      [
        "ç",
        "ł"
      ],
      [
        "å¼",
        "ı"
      ],
      [
        "u",
        "n"
      ],
      [
        "v",
        "er"
      ],
      [
        "p",
        "e"
      ],
      [
        "Ġw",
        "h"
      ],
      [
        "a",
        "y"
      ],
      [
        "ç",
        "´"
      ],
      [
        "æ",
        "ģ"
      ],
      [
        "å¥",
        "½"
      ],
      [
        "å",
        "Ģ"
      ],
      [
        "ç",
        "«"
      ],
      [
        "å¦Ĥ",
        "æŀľ"
      ],
      [
        "è",
        "ī"
      ],
      [
        "åŃ",
        "Ĳ"
      ],
      [
        "æ",
        "¸"
      ],
      [
        "Ġ",
        "("
      ],
      [
        "Ġ",
        "H"
      ],
      [
        "çĦ",
        "¶"
      ],
      [
        "i",
        "v"
      ],
      [
        "å",
        "ģ"
      ],
      [
        "0",
        "0"
      ],
      [
        "åħ",
        "·"
      ],
      [
        "ç",
        "±"
      ],
      [
        "Ł",
        "¥"
      ],
      [
        "l",
        "d"
      ],
      [
        "ç",
        "Ĥ"
      ],
      [
        "i",
        "b"
      ],
      [
        "è",
        "°"
      ],
      [
        "ä»",
        "ĸ"
      ],
      [
        "é",
        "¡"
      ],
      [
        "ç®",
        "Ĺ"
      ],
      [
        "ã",
        "ģ"
      ],
      [
        "åĪ",
        "¶"
      ],
      [
        "âĢ",
        "ľ"
      ],
      [
        "âĢ",
        "Ŀ"
      ],
      [
        "ä¹",
        "ł"
      ],
      [
        "å",
        "ŀ"
      ],
      [
        "e",
        "m"
      ],
      [
        "id",
        "e"
      ],
      [
        "æľ",
        "¬"
      ],
      [
        "æĪ",
        "·"
      ],
      [
        "Ġ",
        "P"
      ],
      [
        "è",
        "¶"
      ],
      [
        "k",
        "e"
      ],
      [
        "n",
        "t"
      ],
      [
        "æľ",
        "Ģ"
      ],
      [
        "åĮ",
        "ħ"
      ],
      [
        "å®",
        "ĥ"
      ],
      [
        "çī",
        "¹"
      ],
      [
        "Ġc",
        "om"
      ],
      [
        "å°",
        "ı"
      ],
      [
        "åĲ",
        "İ"
      ],
      [
        "åŃ",
        "Ĺ"
      ],
      [
        "å¸",
        "®"
      ],
      [
        "èĢ",
        "Į"
      ],
      [
        "æķ",
        "Ī"
      ],
      [
        "èĢ",
        "ħ"
      ],
      [
        "Ġ",
        "3"
      ],
      [
        "ig",
        "h"
      ],
      [
        "é",
        "£"
      ],
      [
        "åĵ",
        "ģ"
      ],
      [
        "ä»",
        "£"
      ],
      [
        "ä»",
        "¶"
      ],
      [
        "d",
        "e"
      ],
      [
        "um",
        "b"
      ],
      [
        "y",
        "th"
      ],
      [
        "é",
        "ļ"
      ],
      [
        "åħ",
        "¥"
      ],
      [
        "Ĥ",
        "¨"
      ],
      [
        "Ġe",
        "x"
      ],
      [
        "ä¹",
        "Ł"
      ],
      [
        "æ",
        "²"
      ],
      [
        "l",
        "o"
      ],
      [
        "çĽ",
        "®"
      ],
      [
        "åŀ",
        "ĭ"
      ],
      [
        "ĊĠĠ",
        "Ġ"
      ],
      [
        "å®",
        "¶"
      ],
      [
        "å¼",
        "Ģ"
      ],
      [
        "an",
        "d"
      ],
      [
        "¨",
        "¡"
      ],
      [
        "Ġn",
        "e"
      ],
      [
        "åĽ",
        "ł"
      ],
      [
        "Ġa",
        "re"
      ],
      [
        "æĦ",
        "ı"
      ],
      [
        "æ",
        "¬"
      ],
      [
        "çļĦ",
        "ç"
      ],
      [
        "Ġh",
        "a"
      ],
      [
        "p",
        "p"
      ],
      [
        "å",
        "ī"
      ],
      [
        "å¸®",
        "åĬ©"
      ],
      [
        "a",
        "in"
      ],
      [
        "t",
        "e"
      ],
      [
        "æĬĢ",
        "æľ¯"
      ],
      [
        "å®",
        "ī"
      ],
      [
        "yth",
        "on"
      ],
      [
        "u",
        "re"
      ],
      [
        "éĹ®",
        "é¢ĺ"
      ],
      [
        "å±",
        "ķ"
      ],
      [
        "ĠĠ",
        "ĠĠ"
      ],
      [
        "çĤ",
        "¹"
      ],
      [
        "T",
        "he"
      ],
      [
        "é",
        "Ķ"
      ],
      [
        "ä¾",
        "ĭ"
      ],
      [
        "ç",
        "Ŀ"
      ],
      [
        "Ġ",
        "+"
      ],
      [
        "æģ",
        "¯"
      ],
      [
        "æľ",
        "į"
      ],
      [
        "Ġ",
        "r"
      ],
      [
        "éĢ",
        "ī"
      ],
      [
        "æ",
        "¨¡"
      ],
      [
        "ä½",
        "Ĩ"
      ],
      [
        "è¯",
        "Ń"
      ],
      [
        "Ġs",
        "e"
      ],
      [
        "åĽ",
        "½"
      ],
      [
        "åĨ",
        "ħ"
      ],
      [
        "Ġm",
        "e"
      ],
      [
        "åĪ",
        "Ľ"
      ],
      [
        "ç»",
        "Ł"
      ],
      [
        "åŃ¦",
        "ä¹ł"
      ],
      [
        "Ġb",
        "y"
      ],
      [
        "é",
        "ķ"
      ],
      [
        "he",
        "r"
      ],
      [
        "è",
        "Ĥ"
      ],
      [
        "æĪĳ",
        "ä»¬"
      ],
      [
        "igh",
        "t"
      ],
      [
        "ä¹",
        "ĭ"
      ],
      [
        "ï¼",
        "Ł"
      ],
      [
        "æĦ",
        "Ł"
      ],
      [
        "ç±",
        "»"
      ],
      [
        "æ±",
        "Ĥ"
      ],
      [
        "æ´",
        "»"
      ],
      [
        "es",
        "s"
      ],
      [
        "è¿Ļ",
        "äºĽ"
      ],
      [
        "é",
        "ª"
      ],
      [
        "é",
        "Ľ"
      ],
      [
        "a",
        "d"
      ],
      [
        "åħ",
        "¬"
      ],
      [
        "Ġd",
        "e"
      ],
      [
        "f",
        "or"
      ],
      [
        "Ġa",
        "l"
      ],
      [
        "äº",
        "§"
      ],
      [
        "m",
        "ent"
      ],
      [
        "ç",
        "¼"
      ],
      [
        "ç½",
        "ĳ"
      ],
      [
        "ĠT",
        "he"
      ],
      [
        "å¿",
        "ĥ"
      ],
      [
        "Ġw",
        "e"
      ],
      [
        "å¹",
        "¶"
      ],
      [
        "ç",
        "¬"
      ],
      [
        "æī",
        "Ģ"
      ],
      [
        "çĽ",
        "¸"
      ],
      [
        "Ġ\\",
        "("
      ],
      [
        "ç",
        "ķ"
      ],
      [
        "å",
        "Ļ"
      ],
      [
        "å",
        "Ŀ"
      ],
      [
        "æľ",
        "Ł"
      ],
      [
        "in",
        "t"
      ],
      [
        "æ",
        "·"
      ],
      [
        "Ġ",
        "`"
      ],
      [
        "r",
        "i"
      ],
      [
        "n",
        "d"
      ],
      [
        "an",
        "t"
      ],
      [
        "as",
        "e"
      ],
      [
        "ç»",
        "ı"
      ],
      [
        "çİ",
        "¯"
      ],
      [
        "è¿Ľ",
        "è¡Į"
      ],
      [
        "ç»",
        "ĵ"
      ],
      [
        "è",
        "Ĭ"
      ],
      [
        "å¹",
        "³"
      ],
      [
        "çĶ",
        "µ"
      ],
      [
        "ç",
        "©"
      ],
      [
        "Ġn",
        "umb"
      ],
      [
        "éĢ",
        "Ĥ"
      ],
      [
        "l",
        "p"
      ],
      [
        "o",
        "o"
      ],
      [
        "ct",
        "ion"
      ],
      [
        "äº",
        "¤"
      ],
      [
        "åĻ",
        "¨"
      ],
      [
        "åı",
        "ĺ"
      ],
      [
        "æł",
        "ĩ"
      ],
      [
        "ä¸",
        "»"
      ],
      [
        "æ",
        "º"
      ],
      [
        "u",
        "s"
      ],
      [
        "p",
        "le"
      ],
      [
        "a",
        "ge"
      ],
      [
        "å¤",
        "Ħ"
      ],
      [
        "çĿ",
        "Ģ"
      ],
      [
        "æľį",
        "åĬ¡"
      ],
      [
        "é",
        "ĥ"
      ],
      [
        "ä¿¡",
        "æģ¯"
      ],
      [
        "x",
        "t"
      ],
      [
        "Ġpro",
        "v"
      ],
      [
        "æİ",
        "¥"
      ],
      [
        "Ġhe",
        "lp"
      ],
      [
        "èµ",
        "Ħ"
      ],
      [
        "åĨ",
        "³"
      ],
      [
        "Ġu",
        "s"
      ],
      [
        "å½",
        "±"
      ],
      [
        "Ġ",
        "le"
      ],
      [
        "æ",
        "Ĥ¨"
      ],
      [
        "ä»¥",
        "ä¸ĭ"
      ],
      [
        "æĺ",
        "İ"
      ],
      [
        "éĩ",
        "Į"
      ],
      [
        "ç",
        "ľ"
      ],
      [
        "è",
        "·"
      ],
      [
        "Ġs",
        "u"
      ],
      [
        "æĥ",
        "ħ"
      ],
      [
        "é",
        "ĥ½"
      ],
      [
        "åľ",
        "º"
      ],
      [
        "ç¡®",
        "ä¿Ŀ"
      ],
      [
        "ä»",
        "İ"
      ],
      [
        "éķ",
        "¿"
      ],
      [
        "W",
        "h"
      ],
      [
        "çĶ¨",
        "æĪ·"
      ],
      [
        "éĥ",
        "¨"
      ],
      [
        "ro",
        "m"
      ],
      [
        "or",
        "t"
      ],
      [
        "åı",
        "Ĭ"
      ],
      [
        "è",
        "ģ"
      ],
      [
        "Ġ",
        "M"
      ],
      [
        "it",
        "y"
      ],
      [
        "å¤",
        "Ł"
      ],
      [
        "åĪ",
        "Ĺ"
      ],
      [
        "å¾",
        "Ĺ"
      ],
      [
        "Ġha",
        "ve"
      ],
      [
        "p",
        "t"
      ],
      [
        "for",
        "m"
      ],
      [
        "åŁ",
        "º"
      ],
      [
        "å®ī",
        "åħ¨"
      ],
      [
        "åĢ",
        "¼"
      ],
      [
        "è°",
        "ĥ"
      ],
      [
        "æĭ",
        "¬"
      ],
      [
        "è",
        "Ļ"
      ],
      [
        "if",
        "ic"
      ],
      [
        "i",
        "ve"
      ],
      [
        "ç¤",
        "¾"
      ],
      [
        "çł",
        "ģ"
      ],
      [
        "t",
        "er"
      ],
      [
        "ä½",
        "ķ"
      ],
      [
        "re",
        "s"
      ],
      [
        "Ġc",
        "h"
      ],
      [
        "éĢī",
        "æĭ"
      ],
      [
        "c",
        "k"
      ],
      [
        "Ġ",
        "qu"
      ],
      [
        "éĢīæĭ",
        "©"
      ],
      [
        "è®¡",
        "ç®Ĺ"
      ],
      [
        "é",
        "¦"
      ],
      [
        "æº",
        "Ĳ"
      ],
      [
        "åĮħ",
        "æĭ¬"
      ],
      [
        "å½",
        "ĵ"
      ],
      [
        "Ġ",
        "5"
      ],
      [
        "en",
        "d"
      ],
      [
        "ç®",
        "¡"
      ],
      [
        "çİ",
        "ĩ"
      ],
      [
        "è¿Ļ",
        "ä¸ª"
      ],
      [
        "æıĲ",
        "é«ĺ"
      ],
      [
        "am",
        "e"
      ],
      [
        "ç³»",
        "ç»Ł"
      ],
      [
        "åºĶ",
        "çĶ¨"
      ],
      [
        "è¿",
        "ĺ"
      ],
      [
        "æķ",
        "´"
      ],
      [
        "æĹ¶",
        "éĹ´"
      ],
      [
        "è®",
        "®"
      ],
      [
        "ar",
        "t"
      ],
      [
        "Ġ",
        "k"
      ],
      [
        "ou",
        "ld"
      ],
      [
        "in",
        "d"
      ],
      [
        "ä½",
        "į"
      ],
      [
        "ä»",
        "»"
      ],
      [
        "æ¯",
        "ı"
      ],
      [
        "è´",
        "¨"
      ],
      [
        "åĵ",
        "į"
      ],
      [
        "u",
        "e"
      ],
      [
        "ä¸Ģ",
        "äºĽ"
      ],
      [
        "å¤",
        "į"
      ],
      [
        "i",
        "es"
      ],
      [
        "i",
        "al"
      ],
      [
        "Ġp",
        "o"
      ],
      [
        "äº",
        "ĭ"
      ],
      [
        "å¸",
        "Ĥ"
      ],
      [
        "èī",
        "²"
      ],
      [
        "åŃ",
        "ĺ"
      ],
      [
        "Ġ",
        "4"
      ],
      [
        "åĮ",
        "º"
      ],
      [
        "èĥ½",
        "å¤Ł"
      ],
      [
        "ç¤",
        "º"
      ],
      [
        "å¹",
        "´"
      ],
      [
        "è",
        "¢"
      ],
      [
        "åī",
        "į"
      ],
      [
        "åĲ",
        "į"
      ],
      [
        "ç´",
        "ł"
      ],
      [
        "ç»",
        "Ħ"
      ],
      [
        "an",
        "g"
      ],
      [
        "æ",
        "¡"
      ],
      [
        "en",
        "ce"
      ],
      [
        "Ġ",
        "F"
      ],
      [
        "Ġs",
        "pe"
      ],
      [
        "Ġw",
        "or"
      ],
      [
        "ic",
        "h"
      ],
      [
        "æ",
        "¶"
      ],
      [
        "é",
        "ħ"
      ],
      [
        "å¢",
        "ŀ"
      ],
      [
        "æ°",
        "´"
      ],
      [
        "æŃ",
        "¥"
      ],
      [
        "å¢",
        "ĥ"
      ],
      [
        "ou",
        "t"
      ],
      [
        "æŀ",
        "Ħ"
      ],
      [
        "Ġ",
        "E"
      ],
      [
        "å¤Ħ",
        "çĲĨ"
      ],
      [
        "il",
        "l"
      ],
      [
        "è¯",
        "·"
      ],
      [
        "Ġf",
        "rom"
      ],
      [
        "å°",
        "ĳ"
      ],
      [
        "éĩį",
        "è¦ģ"
      ],
      [
        "e",
        "re"
      ],
      [
        "é¡",
        "¹"
      ],
      [
        "Ġc",
        "o"
      ],
      [
        "æ¯",
        "Ķ"
      ],
      [
        "æŃ",
        "£"
      ],
      [
        "ä¸į",
        "åĲĮ"
      ],
      [
        "åĩ",
        "½"
      ],
      [
        "åĪ",
        "©"
      ],
      [
        "é",
        "Ĥ"
      ],
      [
        "è¢",
        "«"
      ],
      [
        "åĩ",
        "Ĩ"
      ],
      [
        "Ġa",
        "b"
      ],
      [
        "æĶ",
        "¯"
      ],
      [
        "ä»",
        "ħ"
      ],
      [
        "Ġ",
        "B"
      ],
      [
        "æł",
        "¹"
      ],
      [
        "è¯",
        "Ĩ"
      ],
      [
        "ä¹",
        "Ī"
      ],
      [
        "å¯",
        "¼"
      ],
      [
        "åħ",
        "ĥ"
      ],
      [
        "åĩ½",
        "æķ°"
      ],
      [
        "ä¼",
        "ĺ"
      ],
      [
        "\\",
        ")"
      ],
      [
        "ion",
        "s"
      ],
      [
        "Ġ",
        "$"
      ],
      [
        "æĹ",
        "ł"
      ],
      [
        "æ³",
        "¨"
      ],
      [
        "éĿ",
        "ŀ"
      ],
      [
        "p",
        "l"
      ],
      [
        "å¤",
        "©"
      ],
      [
        "æ",
        "Ł¥"
      ],
      [
        "æĬ",
        "¤"
      ],
      [
        "æµ",
        "ģ"
      ],
      [
        "æµ",
        "ĭ"
      ],
      [
        "è§",
        "Ħ"
      ],
      [
        "h",
        "is"
      ],
      [
        "ç",
        "ĸ"
      ],
      [
        "æĺ¯",
        "ä¸Ģä¸ª"
      ],
      [
        "ĠA",
        "l"
      ],
      [
        "Ġth",
        "is"
      ],
      [
        "Ġ",
        "W"
      ],
      [
        "ul",
        "t"
      ],
      [
        "åº",
        "ı"
      ],
      [
        "çº",
        "¿"
      ],
      [
        "è¯",
        "ķ"
      ],
      [
        "åıĳ",
        "å±ķ"
      ],
      [
        "å½±",
        "åĵį"
      ],
      [
        "##",
        "#"
      ],
      [
        "ç",
        "¾"
      ],
      [
        "ç½",
        "®"
      ],
      [
        "åŁ",
        "Ł"
      ],
      [
        "åı",
        "ĸ"
      ],
      [
        "in",
        "e"
      ],
      [
        "Ġprov",
        "ide"
      ],
      [
        "é£",
        "İ"
      ],
      [
        "å½",
        "¢"
      ],
      [
        "Ġspe",
        "c"
      ],
      [
        "ä¼",
        "ł"
      ],
      [
        "å¤",
        "ĩ"
      ],
      [
        "å¼",
        "º"
      ],
      [
        "i",
        "ke"
      ],
      [
        "a",
        "ct"
      ],
      [
        "åħ·",
        "ä½ĵ"
      ],
      [
        "Ġn",
        "ot"
      ],
      [
        "i",
        "z"
      ],
      [
        "å®",
        "¹"
      ],
      [
        "l",
        "ow"
      ],
      [
        "Ġas",
        "s"
      ],
      [
        "é¢",
        "Ĩ"
      ],
      [
        "éª",
        "Į"
      ],
      [
        "Ġm",
        "a"
      ],
      [
        "åĩ",
        "ı"
      ],
      [
        "Ġmo",
        "re"
      ],
      [
        "å",
        "ķ"
      ],
      [
        "ç®¡",
        "çĲĨ"
      ],
      [
        "Ġyou",
        "r"
      ],
      [
        "æĢ",
        "ģ"
      ],
      [
        "Ġd",
        "o"
      ],
      [
        "ä¸Ń",
        "çļĦ"
      ],
      [
        "æ",
        "»"
      ],
      [
        "Ġ",
        "G"
      ],
      [
        "Ġwh",
        "ich"
      ],
      [
        "æŀ",
        "Ĳ"
      ],
      [
        "Ġt",
        "e"
      ],
      [
        "Ġnumb",
        "er"
      ],
      [
        "ab",
        "le"
      ],
      [
        "è¿",
        "°"
      ],
      [
        "ab",
        "a"
      ],
      [
        "è¾",
        "ĵ"
      ],
      [
        "æĹ",
        "¥"
      ],
      [
        "æł¹",
        "æį®"
      ],
      [
        "åĽ",
        "ŀ"
      ],
      [
        "çŃ",
        "ĸ"
      ],
      [
        "Ġ",
        "en"
      ],
      [
        "Ġ",
        "D"
      ],
      [
        "é",
        "ĵ"
      ],
      [
        "Ġp",
        "r"
      ],
      [
        "è",
        "¨"
      ],
      [
        "çİ¯",
        "å¢ĥ"
      ],
      [
        "ib",
        "aba"
      ],
      [
        "æĸ¹",
        "æ³ķ"
      ],
      [
        "åĪ",
        "«"
      ],
      [
        "åį",
        "ķ"
      ],
      [
        "p",
        "er"
      ],
      [
        "r",
        "ou"
      ],
      [
        "Ł",
        "³"
      ],
      [
        "Ġne",
        "ed"
      ],
      [
        "è¿",
        "Ĳ"
      ],
      [
        "r",
        "ing"
      ],
      [
        "æł",
        "¼"
      ],
      [
        "p",
        "ut"
      ],
      [
        "ä¸į",
        "ä»ħ"
      ],
      [
        "u",
        "st"
      ],
      [
        "æ",
        "£"
      ],
      [
        "it",
        "e"
      ],
      [
        "an",
        "ce"
      ],
      [
        "æĻ",
        "º"
      ],
      [
        "éĽ",
        "Ĩ"
      ],
      [
        "åı",
        "Ĺ"
      ],
      [
        "æŃ",
        "¤"
      ],
      [
        "ou",
        "r"
      ],
      [
        "å¤",
        "ĸ"
      ],
      [
        "ä»£",
        "çłģ"
      ],
      [
        "ç§",
        "ĳ"
      ],
      [
        "åĲ",
        "ĳ"
      ],
      [
        "èĬ",
        "Ĥ"
      ],
      [
        "éĢļ",
        "å¸¸"
      ],
      [
        "è®¾",
        "è®¡"
      ],
      [
        "å",
        "§"
      ],
      [
        "a",
        "re"
      ],
      [
        "æ·",
        "±"
      ],
      [
        "at",
        "ed"
      ],
      [
        "ic",
        "al"
      ],
      [
        "æ",
        "Ł"
      ],
      [
        "Ġl",
        "ike"
      ],
      [
        "ou",
        "d"
      ],
      [
        "é¢",
        "Ħ"
      ],
      [
        "éĢ",
        "Ł"
      ],
      [
        "èĢ",
        "ĥ"
      ],
      [
        "n",
        "ow"
      ],
      [
        "è¨",
        "Ģ"
      ],
      [
        "åĪĨ",
        "æŀĲ"
      ],
      [
        "an",
        "s"
      ],
      [
        "åĽ",
        "¾"
      ],
      [
        "ĊĠĠ",
        "ĠĠĠĠ"
      ],
      [
        "ä¸ª",
        "äºº"
      ],
      [
        "c",
        "l"
      ],
      [
        "Ġw",
        "as"
      ],
      [
        "åĬ",
        "Ł"
      ],
      [
        "a",
        "v"
      ],
      [
        "ĠH",
        "ow"
      ],
      [
        "ç",
        "Ł¥"
      ],
      [
        "ç»",
        "Ļ"
      ],
      [
        "æĮ",
        "ĩ"
      ],
      [
        "åĳ",
        "ĺ"
      ],
      [
        "æ",
        "®"
      ],
      [
        "åı",
        "Ĥ"
      ],
      [
        "ç»",
        "Ń"
      ],
      [
        "Ġs",
        "o"
      ],
      [
        "l",
        "oud"
      ],
      [
        "ä¾ĭ",
        "å¦Ĥ"
      ],
      [
        "æĥ",
        "³"
      ],
      [
        "ic",
        "e"
      ],
      [
        "åĲĮ",
        "æĹ¶"
      ],
      [
        "Ġs",
        "h"
      ],
      [
        "æł",
        "·"
      ],
      [
        "c",
        "c"
      ],
      [
        "u",
        "d"
      ],
      [
        "è®",
        "º"
      ],
      [
        "åı",
        "į"
      ],
      [
        "ç",
        "ģ"
      ],
      [
        "æ¨¡",
        "åŀĭ"
      ],
      [
        "ä¹",
        "ī"
      ],
      [
        "è¾",
        "¾"
      ],
      [
        "äº",
        "ĳ"
      ],
      [
        "çĽ",
        "´"
      ],
      [
        "ç",
        "ĥ"
      ],
      [
        "ĠAl",
        "ibaba"
      ],
      [
        "è",
        "ĥ"
      ],
      [
        "çĲ",
        "ĥ"
      ],
      [
        "Ġt",
        "r"
      ],
      [
        "å·",
        "±"
      ],
      [
        "Wh",
        "at"
      ],
      [
        "æķ",
        "Ļ"
      ],
      [
        "un",
        "ction"
      ],
      [
        "Ġan",
        "y"
      ],
      [
        "åĨ",
        "µ"
      ],
      [
        "æī",
        "ĭ"
      ],
      [
        "Ġass",
        "ist"
      ],
      [
        "èĩª",
        "å·±"
      ],
      [
        "as",
        "t"
      ],
      [
        "\\",
        "["
      ],
      [
        "ar",
        "y"
      ],
      [
        "åĽ",
        "¢"
      ],
      [
        "å·",
        "´"
      ],
      [
        "å·¥",
        "ä½ľ"
      ],
      [
        "ç¬",
        "¦"
      ],
      [
        "å»º",
        "è®®"
      ],
      [
        "è",
        "±"
      ],
      [
        "a",
        "g"
      ],
      [
        "éĻ",
        "ħ"
      ],
      [
        "Ġin",
        "t"
      ],
      [
        "è",
        "į"
      ],
      [
        "æ¬",
        "¡"
      ],
      [
        "æĶ",
        "¹"
      ],
      [
        "ã",
        "Ĥ"
      ],
      [
        "æī",
        "¾"
      ],
      [
        "ç",
        "¥"
      ],
      [
        "o",
        "g"
      ],
      [
        "åħ",
        "±"
      ],
      [
        "im",
        "e"
      ],
      [
        "a",
        "p"
      ],
      [
        "form",
        "ation"
      ],
      [
        "Ġ",
        "0"
      ],
      [
        "Ġre",
        "s"
      ],
      [
        "åģ",
        "¥"
      ],
      [
        "ä»",
        "·"
      ],
      [
        "ä¸",
        "¤"
      ],
      [
        "æĻ",
        "¯"
      ],
      [
        "è¿ĩ",
        "ç¨ĭ"
      ],
      [
        "åİ",
        "Ł"
      ],
      [
        "å¦Ĥ",
        "ä½ķ"
      ],
      [
        "è§",
        "Ĥ"
      ],
      [
        "t",
        "her"
      ],
      [
        "æĸ¹",
        "å¼ı"
      ],
      [
        "è",
        "Ĳ"
      ],
      [
        "Ġ2",
        "0"
      ],
      [
        "ç«",
        "ĭ"
      ],
      [
        "è½",
        "¬"
      ],
      [
        "Ġ",
        "'"
      ],
      [
        "å¼",
        "ķ"
      ],
      [
        "æ°",
        "Ķ"
      ],
      [
        "Ġab",
        "out"
      ],
      [
        "Ġspec",
        "ific"
      ],
      [
        "Ġ",
        "L"
      ],
      [
        "å®ŀ",
        "çİ°"
      ],
      [
        "Ġa",
        "d"
      ],
      [
        "çĲĨ",
        "è§£"
      ],
      [
        "è®",
        "©"
      ],
      [
        "æĺ¯",
        "ä¸Ģ"
      ],
      [
        "æľ",
        "ª"
      ],
      [
        "çĶ¨",
        "äºİ"
      ],
      [
        "ç¼",
        "ĸ"
      ],
      [
        "le",
        "ase"
      ],
      [
        "Ġ",
        "im"
      ],
      [
        "é¢Ĩ",
        "åŁŁ"
      ],
      [
        "æİ",
        "¨"
      ],
      [
        "éĺ",
        "¿"
      ],
      [
        "Ġk",
        "now"
      ],
      [
        "è§",
        "Ĩ"
      ],
      [
        "ä½ł",
        "çļĦ"
      ],
      [
        "è§£",
        "åĨ³"
      ],
      [
        "ç»",
        "ľ"
      ],
      [
        "Ġin",
        "formation"
      ],
      [
        "1",
        "0"
      ],
      [
        "Ġp",
        "l"
      ],
      [
        "åĩı",
        "å°ĳ"
      ],
      [
        "åħ",
        "ī"
      ],
      [
        "å®",
        "Į"
      ],
      [
        "te",
        "xt"
      ],
      [
        "åħ",
        "Ī"
      ],
      [
        "Ġa",
        "r"
      ],
      [
        "åĨ",
        "Ļ"
      ],
      [
        "éļ",
        "ı"
      ],
      [
        "æĶ",
        "¶"
      ],
      [
        "ç½ĳ",
        "ç»ľ"
      ],
      [
        "æĻº",
        "èĥ½"
      ],
      [
        "Ġ",
        "N"
      ],
      [
        "éĺ",
        "Ł"
      ],
      [
        "å®",
        "¢"
      ],
      [
        "èµ",
        "·"
      ],
      [
        "Ġf",
        "unction"
      ],
      [
        "Ġ",
        "J"
      ],
      [
        "k",
        "ing"
      ],
      [
        "éĤ",
        "£"
      ],
      [
        "o",
        "re"
      ],
      [
        "çĶ",
        "±"
      ],
      [
        "Ġ",
        "if"
      ],
      [
        "ation",
        "s"
      ],
      [
        "Ġ",
        "R"
      ],
      [
        "åº",
        "·"
      ],
      [
        "åĪ",
        "Ļ"
      ],
      [
        "ĠC",
        "h"
      ],
      [
        "éľĢ",
        "æ±Ĥ"
      ],
      [
        "Ġa",
        "t"
      ],
      [
        "åħ",
        "į"
      ],
      [
        "en",
        "er"
      ],
      [
        "æĶ",
        "¾"
      ],
      [
        "æĶ¯",
        "æĮģ"
      ],
      [
        "Ġu",
        "p"
      ],
      [
        "ç",
        "²"
      ],
      [
        "æľ",
        "Ľ"
      ],
      [
        "ä¸",
        "ĵ"
      ],
      [
        "è¯",
        "´"
      ],
      [
        "ä¿Ŀ",
        "æĮģ"
      ],
      [
        "ou",
        "nt"
      ],
      [
        "ç",
        "Ĭ"
      ],
      [
        "åİ",
        "Ĩ"
      ],
      [
        "ur",
        "n"
      ],
      [
        "Ġw",
        "he"
      ],
      [
        "ĠT",
        "his"
      ],
      [
        "éĩ",
        "ĳ"
      ],
      [
        "al",
        "l"
      ],
      [
        "éģ",
        "ĵ"
      ],
      [
        "a",
        "ch"
      ],
      [
        "s",
        "o"
      ],
      [
        "Ġf",
        "e"
      ],
      [
        "é",
        "Ł³"
      ],
      [
        "el",
        "l"
      ],
      [
        "ç©",
        "º"
      ],
      [
        "çł",
        "Ķ"
      ],
      [
        "k",
        "s"
      ],
      [
        "åķ",
        "Ĩ"
      ],
      [
        "åį",
        "³"
      ],
      [
        "è§",
        "Ĵ"
      ],
      [
        "ç¾",
        "İ"
      ],
      [
        "åģ¥",
        "åº·"
      ],
      [
        "ç¤¾",
        "ä¼ļ"
      ],
      [
        "è¯Ń",
        "è¨Ģ"
      ],
      [
        "t",
        "ain"
      ],
      [
        "å",
        "£"
      ],
      [
        "an",
        "ge"
      ],
      [
        "è",
        "º"
      ],
      [
        "at",
        "a"
      ],
      [
        "è",
        "Ħ"
      ],
      [
        "ig",
        "n"
      ],
      [
        "Ġh",
        "as"
      ],
      [
        "è®",
        "°"
      ],
      [
        "e",
        "ct"
      ],
      [
        "ä¹",
        "Ĳ"
      ],
      [
        "è",
        "İ"
      ],
      [
        "ç",
        "Ĺ"
      ],
      [
        "èº",
        "«"
      ],
      [
        "Ġre",
        "t"
      ],
      [
        "çĶŁ",
        "æ´»"
      ],
      [
        "i",
        "le"
      ],
      [
        "æİ",
        "§"
      ],
      [
        "ou",
        "s"
      ],
      [
        "ç»",
        "´"
      ],
      [
        "é",
        "Ĵ"
      ],
      [
        "å§",
        "ĭ"
      ],
      [
        "éĺ¿",
        "éĩĮ"
      ],
      [
        "äº§",
        "åĵģ"
      ],
      [
        "éĿŀ",
        "å¸¸"
      ],
      [
        "è",
        "£"
      ],
      [
        "er",
        "m"
      ],
      [
        "å",
        "ĸ"
      ],
      [
        "ç®",
        "Ģ"
      ],
      [
        "o",
        "s"
      ],
      [
        "ĠI",
        "f"
      ],
      [
        "å¸Ĥ",
        "åľº"
      ],
      [
        "Ġ",
        "j"
      ],
      [
        "å¿",
        "«"
      ],
      [
        "æ®",
        "µ"
      ],
      [
        "o",
        "d"
      ],
      [
        "Ġs",
        "er"
      ],
      [
        "p",
        "r"
      ],
      [
        "äºĨ",
        "è§£"
      ],
      [
        "Ġ",
        "6"
      ],
      [
        "åį",
        "ĩ"
      ],
      [
        "å°",
        "±"
      ],
      [
        "èµĦ",
        "æºĲ"
      ],
      [
        "èĩ",
        "´"
      ],
      [
        "çĽ®",
        "æłĩ"
      ],
      [
        "åı",
        "°"
      ],
      [
        "ra",
        "c"
      ],
      [
        "è±",
        "¡"
      ],
      [
        "ä¸»",
        "è¦ģ"
      ],
      [
        "åĲ",
        "¦"
      ],
      [
        "æĸ",
        "Ļ"
      ],
      [
        "èĥ½",
        "åĬĽ"
      ],
      [
        "æĸ",
        "Ń"
      ],
      [
        "çľ",
        "ĭ"
      ],
      [
        "à",
        "¸"
      ],
      [
        "Ġc",
        "re"
      ],
      [
        "A",
        "I"
      ],
      [
        "d",
        "u"
      ],
      [
        "æ£",
        "Ģ"
      ],
      [
        "Ġit",
        "s"
      ],
      [
        "ĠI",
        "t"
      ],
      [
        "ä»¥",
        "åıĬ"
      ],
      [
        "è¯",
        "ģ"
      ],
      [
        "ä»ĸ",
        "ä»¬"
      ],
      [
        "ĠC",
        "loud"
      ],
      [
        "a",
        "il"
      ],
      [
        "p",
        "ython"
      ],
      [
        "å¯¹",
        "äºİ"
      ],
      [
        "éĻ",
        "Ĳ"
      ],
      [
        "u",
        "b"
      ],
      [
        "ä¼",
        "ģ"
      ],
      [
        "2",
        "0"
      ],
      [
        "åı",
        "¸"
      ],
      [
        "æ¸",
        "¸"
      ],
      [
        "æ",
        "ĵ"
      ],
      [
        "é£",
        "Ł"
      ],
      [
        "æ»",
        "¡"
      ],
      [
        "æĸĩ",
        "åĮĸ"
      ],
      [
        "(",
        ")"
      ],
      [
        "Ġb",
        "ut"
      ],
      [
        "ç»",
        "Ĩ"
      ],
      [
        "ï¼",
        "ģ"
      ],
      [
        "å¸",
        "Į"
      ],
      [
        "Ġm",
        "y"
      ],
      [
        "i",
        "p"
      ],
      [
        "ä¼ģ",
        "ä¸ļ"
      ],
      [
        "èģ",
        "Ķ"
      ],
      [
        "Ġ",
        "O"
      ],
      [
        "é¡¹",
        "çĽ®"
      ],
      [
        "æķ°",
        "åŃĹ"
      ],
      [
        "çķ",
        "Į"
      ],
      [
        "éģ",
        "¿"
      ],
      [
        "åĩ",
        "ł"
      ],
      [
        "}",
        "{"
      ],
      [
        "on",
        "g"
      ],
      [
        "ä¿Ŀ",
        "æĬ¤"
      ],
      [
        "æĪ",
        "ĺ"
      ],
      [
        "è¯",
        "Ħ"
      ],
      [
        "ä»",
        "Ģ"
      ],
      [
        "re",
        "e"
      ],
      [
        "æĢ",
        "»"
      ],
      [
        "ç§",
        "¯"
      ],
      [
        "è¯",
        "¥"
      ],
      [
        "éħ",
        "į"
      ],
      [
        "ĊĠĠĠĠĠĠ",
        "Ġ"
      ],
      [
        "as",
        "s"
      ],
      [
        "e",
        "ver"
      ],
      [
        "Ġ",
        "x"
      ],
      [
        "c",
        "es"
      ],
      [
        "æĽ´",
        "åĬł"
      ],
      [
        "Ġqu",
        "est"
      ],
      [
        "éĢ",
        "ł"
      ],
      [
        "Ġg",
        "ener"
      ],
      [
        "æĿ",
        "¡"
      ],
      [
        "f",
        "rac"
      ],
      [
        "Ġret",
        "urn"
      ],
      [
        "è",
        "Į"
      ],
      [
        "i",
        "e"
      ],
      [
        "Ġ\\",
        ")"
      ],
      [
        "çĬ",
        "¶"
      ],
      [
        "ä»Ģ",
        "ä¹Ī"
      ],
      [
        "æ¡",
        "Ī"
      ],
      [
        "ä¸Ń",
        "åĽ½"
      ],
      [
        "Ġu",
        "n"
      ],
      [
        "åĲ",
        "«"
      ],
      [
        "é¦",
        "ĸ"
      ],
      [
        "å¹",
        "¿"
      ],
      [
        "æĺ",
        "ĵ"
      ],
      [
        "ä¹ĭ",
        "éĹ´"
      ],
      [
        "åĽ¢",
        "éĺŁ"
      ],
      [
        "è",
        "Ī"
      ],
      [
        "Ġh",
        "ow"
      ],
      [
        "v",
        "el"
      ],
      [
        "Ġs",
        "c"
      ],
      [
        "Ġf",
        "ind"
      ],
      [
        "Ġu",
        "se"
      ],
      [
        "é",
        "©"
      ],
      [
        "æ²",
        "¡"
      ],
      [
        "Ġ1",
        "0"
      ],
      [
        "'",
        "m"
      ],
      [
        "å¯",
        "Ĩ"
      ],
      [
        "çĶŁ",
        "æĪĲ"
      ],
      [
        "èĻ",
        "ĳ"
      ],
      [
        "p",
        "ort"
      ],
      [
        "o",
        "c"
      ],
      [
        "'",
        "re"
      ],
      [
        "åħ¬",
        "åı¸"
      ],
      [
        "åĬŁ",
        "èĥ½"
      ],
      [
        "æķ",
        "ħ"
      ],
      [
        "Ġin",
        "cl"
      ],
      [
        "ar",
        "d"
      ],
      [
        "at",
        "es"
      ],
      [
        "èĤ",
        "²"
      ],
      [
        "åħĥ",
        "ç´ł"
      ],
      [
        "éĻ",
        "©"
      ],
      [
        "Ġv",
        "al"
      ],
      [
        "åĮ",
        "»"
      ],
      [
        "æķĪ",
        "çİĩ"
      ],
      [
        "ä¸",
        "ī"
      ],
      [
        "èĩª",
        "çĦ¶"
      ],
      [
        "c",
        "om"
      ],
      [
        "æĢ§",
        "åĴĮ"
      ],
      [
        "'",
        "t"
      ],
      [
        "æį",
        "¢"
      ],
      [
        "æ¸",
        "ħ"
      ],
      [
        "Ġa",
        "pp"
      ],
      [
        "ç´",
        "¢"
      ],
      [
        "éģ¿",
        "åħį"
      ],
      [
        "æĿ",
        "Ĥ"
      ],
      [
        "Ġ",
        "["
      ],
      [
        "Ġd",
        "es"
      ],
      [
        "æĿ",
        "ĥ"
      ],
      [
        "å®ĥ",
        "ä»¬"
      ],
      [
        "è¶",
        "³"
      ],
      [
        "åĨħ",
        "å®¹"
      ],
      [
        "è",
        "ĭ"
      ],
      [
        "Ġl",
        "ist"
      ],
      [
        "åĲ",
        "Ħ"
      ],
      [
        "æĺ¯",
        "åĲ¦"
      ],
      [
        "æĸ¹",
        "éĿ¢"
      ],
      [
        "Ġe",
        "qu"
      ],
      [
        "æ²¡",
        "æľī"
      ],
      [
        "ĠCh",
        "in"
      ],
      [
        "ç",
        "ĭ"
      ],
      [
        "æİ",
        "Ĵ"
      ],
      [
        "åĪ",
        "Ĵ"
      ],
      [
        "ç",
        "Ļ"
      ],
      [
        "æīĢ",
        "æľī"
      ],
      [
        "è®",
        "¤"
      ],
      [
        "éĶ",
        "®"
      ],
      [
        "äº",
        "Ĵ"
      ],
      [
        "è¯",
        "į"
      ],
      [
        "i",
        "re"
      ],
      [
        "åĳ",
        "³"
      ],
      [
        "æĸ",
        "½"
      ],
      [
        "è®",
        "Ń"
      ],
      [
        "æľī",
        "æķĪ"
      ],
      [
        "é",
        "¥"
      ],
      [
        "Ġf",
        "ol"
      ],
      [
        "ar",
        "i"
      ],
      [
        "å¸",
        "¦"
      ],
      [
        "æ´»",
        "åĬ¨"
      ],
      [
        "è´",
        "¹"
      ],
      [
        "I",
        "n"
      ],
      [
        "æŀ",
        "ģ"
      ],
      [
        "ä½",
        "İ"
      ],
      [
        "a",
        "ce"
      ],
      [
        "el",
        "y"
      ],
      [
        "Ġco",
        "de"
      ],
      [
        "åħ¶",
        "ä»ĸ"
      ],
      [
        "ir",
        "st"
      ],
      [
        "Ġw",
        "ill"
      ],
      [
        "ä¼ĺ",
        "åĮĸ"
      ],
      [
        "ç»",
        "ĥ"
      ],
      [
        "å¼Ģ",
        "åıĳ"
      ],
      [
        "è½",
        "¦"
      ],
      [
        "äº",
        "«"
      ],
      [
        "Ġmo",
        "st"
      ],
      [
        "Ġs",
        "om"
      ],
      [
        "Ġfol",
        "low"
      ],
      [
        "Ġd",
        "et"
      ],
      [
        "ç",
        "Ī"
      ],
      [
        "å¤į",
        "æĿĤ"
      ],
      [
        "o",
        "p"
      ],
      [
        "åº",
        "ĵ"
      ],
      [
        "Ġfor",
        "m"
      ],
      [
        "ä¹",
        "¦"
      ],
      [
        "æĢ",
        "Ŀ"
      ],
      [
        "ç©",
        "¶"
      ],
      [
        "iv",
        "en"
      ],
      [
        "å¸Į",
        "æľĽ"
      ],
      [
        "åĪĹ",
        "è¡¨"
      ],
      [
        "Ġcom",
        "m"
      ],
      [
        "è¿Ļ",
        "ç§į"
      ],
      [
        "åĿ",
        "Ĺ"
      ],
      [
        "g",
        "h"
      ],
      [
        "è½",
        "»"
      ],
      [
        "åŃĹ",
        "ç¬¦"
      ],
      [
        "çķ",
        "¥"
      ],
      [
        "e",
        "p"
      ],
      [
        "Ġa",
        "cc"
      ],
      [
        "ĠHow",
        "ever"
      ],
      [
        "al",
        "ly"
      ],
      [
        "è¾",
        "ĥ"
      ],
      [
        "åĳ",
        "½"
      ],
      [
        "åĽł",
        "ä¸º"
      ],
      [
        "è¶",
        "£"
      ],
      [
        "ç",
        "¦"
      ],
      [
        "èĢĥ",
        "èĻĳ"
      ],
      [
        "è¯",
        "Ŀ"
      ],
      [
        "or",
        "d"
      ],
      [
        "Ġmo",
        "d"
      ],
      [
        "Ġ",
        "U"
      ],
      [
        "Ġcom",
        "p"
      ],
      [
        "ã",
        "ĥ"
      ],
      [
        "Ġ",
        "7"
      ],
      [
        "èİ",
        "·"
      ],
      [
        "å",
        "ĥ"
      ],
      [
        "å¢ŀ",
        "åĬł"
      ],
      [
        "į",
        "ä½ľ"
      ],
      [
        "ĠP",
        "ython"
      ],
      [
        "è·",
        "¯"
      ],
      [
        "a",
        "c"
      ],
      [
        "åĳ",
        "Ĭ"
      ],
      [
        "åı",
        "ª"
      ],
      [
        "ä»¥ä¸ĭ",
        "æĺ¯"
      ],
      [
        "ä½ł",
        "åı¯ä»¥"
      ],
      [
        "çłĶ",
        "ç©¶"
      ],
      [
        "è°ĥ",
        "æķ´"
      ],
      [
        "Ġ",
        "ro"
      ],
      [
        "Ġd",
        "ata"
      ],
      [
        "çĸ",
        "Ĺ"
      ],
      [
        "è¯",
        "»"
      ],
      [
        "å¾",
        "ĭ"
      ],
      [
        "r",
        "y"
      ],
      [
        "è§",
        "ģ"
      ],
      [
        "pr",
        "int"
      ],
      [
        "è£",
        "ħ"
      ],
      [
        "am",
        "ple"
      ],
      [
        "\\",
        "]"
      ],
      [
        "Ġs",
        "ent"
      ],
      [
        "Ġm",
        "ight"
      ],
      [
        "ä¿",
        "ĥ"
      ],
      [
        "çī",
        "ĩ"
      ],
      [
        "ħ",
        "§"
      ],
      [
        "Ġ\\",
        "]"
      ],
      [
        "æĮģ",
        "ç»Ń"
      ],
      [
        ".",
        "\""
      ],
      [
        "åı¯èĥ½",
        "ä¼ļ"
      ],
      [
        "åı",
        "£"
      ],
      [
        "å¸",
        "ĥ"
      ],
      [
        "å¾",
        "Ī"
      ],
      [
        "åı",
        "·"
      ],
      [
        "éĵ",
        "¾"
      ],
      [
        "el",
        "lo"
      ],
      [
        "çī¹",
        "å®ļ"
      ],
      [
        "æĸĩ",
        "ä»¶"
      ],
      [
        "-",
        "-"
      ],
      [
        "èĩ",
        "³"
      ],
      [
        "ãĢ",
        "Ĭ"
      ],
      [
        "æĪ",
        "ı"
      ],
      [
        "ãĢ",
        "ĭ"
      ],
      [
        "ur",
        "re"
      ],
      [
        "åĥ",
        "ı"
      ],
      [
        "em",
        "s"
      ],
      [
        "åħ",
        "´"
      ],
      [
        "ä¸",
        "ĸ"
      ],
      [
        "è´¨",
        "éĩı"
      ],
      [
        "æ",
        "¼"
      ],
      [
        "res",
        "s"
      ],
      [
        "éĻ",
        "¤"
      ],
      [
        "æĥħ",
        "åĨµ"
      ],
      [
        "Ġ",
        "{"
      ],
      [
        "Ġ",
        "8"
      ],
      [
        "çĦ¶",
        "åĲİ"
      ],
      [
        "å¦Ĥæŀľ",
        "ä½ł"
      ],
      [
        "åı",
        "¥"
      ],
      [
        "P",
        "ython"
      ],
      [
        "p",
        "h"
      ],
      [
        "H",
        "ello"
      ],
      [
        "æŁ",
        "Ĳ"
      ],
      [
        "å¹³",
        "åı°"
      ],
      [
        "æĶ",
        "¿"
      ],
      [
        "er",
        "tain"
      ],
      [
        "å½",
        "ķ"
      ],
      [
        "im",
        "es"
      ],
      [
        "Ġp",
        "art"
      ],
      [
        "ou",
        "nd"
      ],
      [
        "w",
        "en"
      ],
      [
        "Ġnumb",
        "ers"
      ],
      [
        "Ġp",
        "er"
      ],
      [
        "åĪĽ",
        "å»º"
      ],
      [
        "s",
        "w"
      ],
      [
        "åıĺ",
        "åĮĸ"
      ],
      [
        "f",
        "ere"
      ],
      [
        "å·¥",
        "åħ·"
      ],
      [
        "Ġne",
        "w"
      ],
      [
        "éĺ",
        "²"
      ],
      [
        "Ġwh",
        "at"
      ],
      [
        "ang",
        "u"
      ],
      [
        "Ġon",
        "e"
      ],
      [
        "æķĻ",
        "èĤ²"
      ],
      [
        "Ġser",
        "v"
      ],
      [
        "Ġn",
        "ame"
      ],
      [
        "f",
        "f"
      ],
      [
        "Ġ",
        "#"
      ],
      [
        "ç®Ĺ",
        "æ³ķ"
      ],
      [
        "è¯",
        "¯"
      ],
      [
        "åħ",
        "ħ"
      ],
      [
        "it",
        "ion"
      ],
      [
        "c",
        "on"
      ],
      [
        "on",
        "e"
      ],
      [
        "Ġthe",
        "ir"
      ],
      [
        "å®ŀ",
        "éĻħ"
      ],
      [
        "a",
        "ck"
      ],
      [
        "f",
        "t"
      ],
      [
        "é",
        "»"
      ],
      [
        "r",
        "am"
      ],
      [
        "åĪ©",
        "çĶ¨"
      ],
      [
        "æī",
        "ĵ"
      ],
      [
        "æĵ",
        "įä½ľ"
      ],
      [
        "Ġs",
        "ol"
      ],
      [
        "æ¶",
        "Ī"
      ],
      [
        "ç§",
        "°"
      ],
      [
        ")",
        ":"
      ],
      [
        "æĪĸ",
        "èĢħ"
      ],
      [
        "Ġo",
        "ther"
      ],
      [
        "Ġal",
        "l"
      ],
      [
        "Ġus",
        "ing"
      ],
      [
        "ri",
        "pt"
      ],
      [
        "Q",
        "wen"
      ],
      [
        "çļĦ",
        "æĺ¯"
      ],
      [
        "e",
        "ar"
      ],
      [
        "ç»ĵ",
        "æŀľ"
      ],
      [
        "ä¿ĥ",
        "è¿Ľ"
      ],
      [
        "Ġc",
        "l"
      ],
      [
        "æľª",
        "æĿ¥"
      ],
      [
        "a",
        "k"
      ],
      [
        "æİ§",
        "åĪ¶"
      ],
      [
        "or",
        "y"
      ],
      [
        "ç",
        "Ł"
      ],
      [
        "Ġl",
        "angu"
      ],
      [
        "Ġs",
        "y"
      ],
      [
        "åĽł",
        "æŃ¤"
      ],
      [
        "éĢĤ",
        "åĲĪ"
      ],
      [
        "v",
        "ers"
      ],
      [
        "Ġint",
        "o"
      ],
      [
        "Ġin",
        "te"
      ],
      [
        "T",
        "o"
      ],
      [
        "Ġm",
        "an"
      ],
      [
        "æ¸",
        "©"
      ],
      [
        "å¥½",
        "çļĦ"
      ],
      [
        "æľī",
        "åĬ©"
      ],
      [
        "2",
        "3"
      ],
      [
        "ç»ĵ",
        "æŀĦ"
      ],
      [
        "æĿ",
        "Ĳ"
      ],
      [
        "èĲ",
        "¥"
      ],
      [
        "Ġv",
        "ari"
      ],
      [
        "æľīåĬ©",
        "äºİ"
      ],
      [
        "Ġe",
        "m"
      ],
      [
        "Ġc",
        "ol"
      ],
      [
        "Ġcon",
        "t"
      ],
      [
        "n",
        "g"
      ],
      [
        "ç«",
        "Ļ"
      ],
      [
        "æĸ°",
        "çļĦ"
      ],
      [
        "æı",
        "ı"
      ],
      [
        "is",
        "h"
      ],
      [
        "Ġof",
        "f"
      ],
      [
        "è¯",
        "¢"
      ],
      [
        "åİ",
        "»"
      ],
      [
        "çĽ¸",
        "åħ³"
      ],
      [
        "æĺ",
        "¾"
      ],
      [
        "Ġo",
        "ut"
      ],
      [
        "as",
        "ed"
      ],
      [
        "è",
        "ŀ"
      ],
      [
        "r",
        "ite"
      ],
      [
        "æµ",
        "İ"
      ],
      [
        "æĺ",
        "Ł"
      ],
      [
        "Ġb",
        "et"
      ],
      [
        "æķħ",
        "äºĭ"
      ],
      [
        "åı",
        "²"
      ],
      [
        "Ġan",
[...]
