#version: 0.2
Ġ t
Ġ a
i n
h e
r e
ï ¼
ä ¸
o n
a t
ç ļ
çļ Ħ
ï¼ Į
Ġ s
Ġ c
n d
ã Ģ
e r
Ġt he
e s
e n
o r
a n
Ġa nd
in g
Ġ p
i t
a l
ãĢ Ĥ
Ġ o
Ġ w
ä »
Ġt o
i s
o u
Ġ m
ä º
Ġ in
Ġ f
Ġ b
e d
i on
å ı
i c
Ġ d
Ġo f
l e
a r
r o
Ġ Ġ
å ħ
en t
æ ľ
Ġ e
å Ĵ
è ¿
ä ½
åĴ Į
æ Ī
å ®
å Ī
v e
u s
Ġ re
Ġ h
Ġt h
a s
c t
ç Ķ
o m
å ľ
å ¤
æ ĺ
å Ĭ
å Ĳ
ä¸ Ģ
i m
è ¯
æ ĸ
at ion
l o
ç »
Ġb e
ãĢ ģ
i d
Ġc an
i l
æĺ ¯
ä ¹
è ®
Ġ A
Ġth at
Ġ T
ä» ¥
c h
Ġ y
c e
ï¼ ļ
o t
er s
Ġ n
é Ģ
r a
å °
Ġ g
Ġy ou
å Ń
Ġp ro
e t
å º
åľ ¨
l y
Ġ is
ä¸ ª
Ġ l
u r
Ġf or
åı ¯
é ĩ
s t
çļĦ æ
u t
Ġ he
i f
ĥ ½
ä ¼
Ġ I
è ¡
i r
it h
å ¹
Ġa re
i g
Ġs t
e l
o l
å ¸
u l
æ Ŀ
æĪ ĳ
Ġ on
è ¦
æľ ī
æ Ĺ
å ¯
è §
è¦ ģ
Ġ us
a y
æ ķ
ç ī
o w
m ent
çĶ ¨
es s
ä¸ Ń
ä» ¬
äº º
å ĩ
Ġe x
ĠĠ ĠĠ
å Ľ
å Į
å ¼
Ġc on
s e
è ĥ½
ç İ
Ġa n
Ġw ith
ä¸ º
at e
i v
a m
Ġa s
u re
è¿ Ļ
å Ĩ
ç Ń
Ġ or
å ·
Ġa l
i es
ç §
Ġ im
æ Ģ
v er
a b
äº Ĩ
Ġs u
Ġd e
g e
t h
åı¯ ä»¥
è Ģ
ä¸ į
å ¾
ĠA I
Ġ en
é Ĺ
æ ī
a k
i ve
Ġm o
å ¥
é Ŀ
ç Ľ
it y
ä ¿
u n
è ´
å į
Ġ it
Ġim p
e ct
æ ł
å ½
è ĩ
é ¢
å ĵ
æ ³
or t
a d
æ ŀ
e m
Ġc om
å ¦
he r
e re
Ġ S
i al
Ġ C
ĠT he
ç Ĳ
çĶ Ł
æ Ħ
p p
æ Ń
æĸ ¹
q u
Ġw h
å¦ Ĥ
é ľ
an t
Ġ le
Ġ v
æ ĭ
æ Ĭ
us t
æĹ ¶
çŃ ī
å ĳ
å¯ ¹
t er
l d
è¡ Į
Ġc h
u d
éľ Ģ
æ °
æĪ Ĳ
Ġ |
a c
a in
i z
æ ı
ion s
Ġh a
æ Ľ
- -
æĿ ¥
om e
å ¿
' s
Ġn e
es t
ä ¾
u m
åĪ °
åľ °
is t
â Ģ
çī ©
ä¸Ģ ä¸ª
l p
æ İ
èĩ ª
Ġhe lp
Ġthe ir
æ Ķ
ä½ ľ
ä¼ ļ
æ Į
æĪĳ ä»¬
n t
äº İ
åĪ Ĩ
re s
p e
åĩ º
id e
æ ĥ
Ġ H
è ¾
Ġ M
f f
æ ¯
o d
ic al
Ġw or
ä¸ Ĭ
a re
æĽ ´
Ġyou r
ä¸ ĭ
è µ
ation s
æķ °
Ġt e
å İ
çĲ Ĩ
ĠT h
è¿ ĩ
å¹ ¶
d u
éĿ ¢
Ġa d
il l
æ µ
å¥ ½
o c
a ct
éľĢ è¦ģ
ä» ĸ
å ±
Ġ r
Ġmo re
åŃ ¦
ç ®
ig h
äº Ľ
Ġ B
åĬ ¨
åĵ ģ
è ī
p le
Ġin c
åĲ Į
Ġex p
ou ld
ä½ ł
æ į
æı Ĳ
å¤ §
çİ °
p t
Ġ P
al l
åĬ ł
ç§ į
Ġs e
åĬ Ľ
ou t
Ġha ve
ç º
ä½ ĵ
Ġpro v
åĮ ĸ
å¤ ļ
å® ļ
Ġus ed
éĢ ļ
c c
è¿ Ľ
æ ´
Ġs h
Ġa b
o s
Ġre s
ĠTh is
ç ¨
æĢ §
a ge
r i
æ ¸
ab le
åŃ Ĳ
Ġb y
åı ĳ
éĩ ı
åº Ķ
Ġ lo
ä½ ¿
åħ ¶
é «
é Ļ
é« ĺ
åº ¦
è§ £
é £
å° Ĩ
æ³ ķ
a nd
ä¿ Ŀ
an s
f or
ro m
re at
Ġp l
çļĦ ç
å¸ ¸
è ½
Ġw e
è¡ ¨
ak e
æĪ ĸ
é¢ ĺ
å Ł
Ġm e
æĸ ĩ
t her
k e
å® ¶
åĲ Ī
æľ Ģ
in e
Ġs ome
ç ±
éĩ į
æŀ ľ
Ġ W
Ġ E
é ĺ
ou r
r ou
ç Ĥ
æ ±
åħ ³
Ġin t
an ce
ä¹ Ł
é ģ
ĠĠ Ġ
å® ĥ
a g
æ ¬
0 0
è °
ul t
y st
éĹ ´
ç ³
Ġt r
p l
ar t
æĦ Ł
æ Ĥ
at a
Ġ F
for m
è® ¡
Ġf rom
Ġ D
éĹ ®
igh t
c es
æį ®
lo p
ä¹ ĭ
Ġf e
å ģ
ve lop
Ġ 1
åĽ ł
k s
æ ²
Ġ u
å° ı
yst em
Ġd is
Ġ R
g y
å· ¥
ç¨ ĭ
å ¢
en ce
è Ĥ
ç ¡
Ġt ra
å »
åħ ¥
ig n
al th
Ġsu ch
a ch
æ Ļ
ar n
Ġd ata
è ¶
å® ŀ
s o
Ġde velop
ç ¤
Ġa cc
as t
èĢ Į
Ġ "
Ġo ther
å» º
Ġe ff
ç «
Ġm an
åħ ¬
å Ģ
ç Ħ
m s
å¼ ı
èī ²
å¾ Ĺ
if ic
Ġ j
Ġ ro
Ġh as
ch n
o lo
åĪ ¶
è Ĭ
ä½¿ çĶ¨
ou s
u al
Ġa t
Ġe m
el l
Ġs ystem
Ġhe alth
it ies
Ġex am
i b
é Ķ
Ġab out
äº §
åĲ İ
æĦ ı
ç± »
Ġp re
æĤ ¨
Ġal so
ent s
Ġin d
in d
éĢ Ĥ
Ġte chn
res s
æĥ ħ
éĹ® é¢ĺ
Ġus e
ï¼ Ł
Ġinc l
Ġs pe
ic h
p s
æľ º
Ġthe y
i e
Ġh ow
Ġwor k
ä¸ ļ
ç ´
Ġimp ro
Ġle arn
æĸ °
çĤ ¹
Ġcon t
ar d
çĦ ¶
æľ ¬
ç³ »
ç¡ ®
è® ¾
åħ ·
éĢ ī
èĢ ħ
é ħ
g h
_ _
Ġn ot
ç ľ
çĽ ¸
Ġprov ide
å ī
ion al
Ġen s
ä¸ İ
è´ ¨
ent ial
ç» ı
å¿ ĥ
an g
æŃ ¤
e nd
Ġp o
è¿Ľ è¡Į
ic e
Ġ -
Ġw ay
å· ±
Ġ 2
im e
ç ½
èĩª å·±
Ġ un
b ot
Ġincl ud
at ed
æ° ´
é ķ
æĮ ģ
ä» £
é ¡
æī Ģ
ç Ŀ
pp ort
o od
i ke
r u
Ġcom m
Ġ L
ä¿ ¡
Ġ G
ç Ł
çĶ µ
Ġw as
lo w
er v
åĮ ħ
ĠĠĠĠ ĠĠĠĠ
Ġw he
d it
Ġwh ich
Ġcom p
é ª
o re
ç ¾
Ġ =
çī ¹
if f
er t
æ ģ
r it
Ġre c
åĨ ħ
æĺ İ
or s
Ġp at
-- --
æ Ł
Ġa pp
n s
åĬ ¡
al y
a ce
æ´ »
ä¾ Ľ
a v
ä¸ »
Ġp ers
ç ĥ
è¯ ¥
Ġm y
ç ©
er i
è® ©
æĬ Ģ
éķ ¿
ac k
Ġ N
Ġd iff
Ġth is
å Ŀ
Ġens ure
å½ ĵ
Ġo ut
Ġc l
Ġ k
é ¦
ou nt
çİ ¯
åĬ ©
Ġtechn olo
Ġthe se
f ul
é ļ
æ ·
ä¸Ģ äºĽ
Ġs oc
å¼ Ģ
å¤ ©
Ġe v
Ġre du
Ġthe m
Ġ (
é ĥ½
æĪ ·
è ·
åľ º
æ° Ķ
Ġ Y
è¯ Ń
éĢļ è¿ĩ
å± ķ
Ġc o
å½ ±
ç ¬
Ġan aly
æ¯ Ķ
åħ ¨
Ġimpro ve
ç» ĵ
å¹ ´
ç ķ
çĿ Ģ
Ġh um
Ġ qu
ç® Ĺ
Ġ O
é£ Ł
il ity
Ġsystem s
åı ĺ
a il
ç ¼
ç ł
è¿Ļ ä¸ª
æıĲ ä¾Ľ
as e
å ŀ
ment s
Ġp ot
Ġan y
ä½ Ĩ
Ġcon s
ĠI t
æł ¼
Ġa r
æľ ¯
éĿ ŀ
Ġd o
Ġm ay
æĭ ©
u e
éĢī æĭ©
r y
é ĥ
Ġl ike
on g
è ģ
` `
i le
æ± Ĥ
Ġne w
i ent
Ġimp act
è¿ ĺ
æ³ ¨
ä¹ Ī
çĽ ®
âĢ ľ
âĢ Ŀ
e f
ä¾ ĭ
Ġpot ential
o k
åı¯ èĥ½
Ġtr ans
Ġa ct
ï¼ ī
Ġspe c
æ ¶
Ġw ill
äº ¤
iz e
ç¾ İ
å¸ Ĥ
Ġst ud
p on
è º
ä¸į åĲĮ
on e
å¾ Ī
åı Ĭ
å¦Ĥ æŀľ
çĲ ĥ
an ge
Ġne ed
å¤ ĸ
et y
ak ing
è¯ ·
at er
Ġpers on
id ent
Ġs o
Ġm ake
å¹ ³
å¤ Ł
èº «
ï¼ Ī
Ġin form
æ ¡
äº ĭ
åı Ĺ
as ed
il d
Ġof f
Ġthe re
c is
è ¢
éĥ ¨
æ¯ ı
ra ct
as s
Ġlearn ing
å ĸ
å½ ¢
i re
ä» İ
bot s
è Ļ
å¸ ®
Ġd es
ĠI n
c ess
Ġp e
if y
Ġwh o
ä¹ ł
æľ Ł
Ġexp eri
é Ĥ
Ġs c
e p
ä½ ķ
Ġt ime
éĿŀ å¸¸
æĭ ¬
å ķ
ä»¥ ä¸ĭ
éģ ĵ
Ġcomm un
Ġc ould
a p
è Ĳ
è° ĥ
l ic
du ct
Ġit s
c y
è¯ ´
Ġm ed
Ġc ol
ul ar
éĩį è¦ģ
Ġs p
åĪ ©
èµ ·
Ġprov id
ic es
å Ļ
æĸ Ļ
Ġimp ort
ur al
åŃ Ĺ
Ġu nd
in t
Ġo ver
åı ¸
æł ¹
é ¥
pl es
ä»ĸ ä»¬
g ra
ur ing
n ow
åį ķ
è¿Ļ äºĽ
åī į
å® ī
Ġp r
åĮħ æĭ¬
ç» Ļ
T he
ä½ į
å §
ç´ ł
åĳ ĺ
Ġ ident
åŀ ĭ
Ġad d
å¼ º
æĺ¯ ä¸Ģ
i p
g or
Ġsu pport
n e
Ġdiff ere
åħ ĥ
Ġas s
åĨ ³
é Ľ
åĲ į
Ġg o
Ġtechnolo gy
æĢ »
è® ®
Ġin ter
Ġin v
Ġo ur
æķ Ī
ust om
Ġre l
if e
åĻ ¨
ing s
ä» ·
Ġp art
è¢ «
æī ĭ
ar y
Ġres pon
Ċ ĠĠĠ
å¥½ çļĦ
at ive
å¸® åĬ©
ç» Ł
æĶ ¾
ĠH ere
ç ģ
Ġb ut
æģ ¯
æŃ £
ar k
åħ¬ åı¸
or y
å¢ ĥ
le ct
é Ł
æĥ ³
é£ İ
at ing
Ġa m
it s
æ »
gor ith
åĵ į
ure s
Ġeff ect
Ġsh ould
Ġp er
è ±
ç ²
ic t
Ġal gorith
u c
rou gh
ä» »
ä» ¶
Ġbe t
i a
Ġanaly z
æł¹ æį®
iz ed
æµ ģ
è§ Ĥ
è £
æł ĩ
ir on
Ġc ustom
Ġre g
Ġperson al
èĥ½ å¤Ł
ic s
iv id
ç Ī
èµ Ħ
æŃ ¥
å® ¹
åĪ Ľ
è Ī
ä¹ Ĳ
å¯ ¼
g an
èĬ Ĥ
Ġal l
en s
am e
n ess
Ġu p
Ġ U
èĢ ĥ
el f
åĢ ¼
å° ĳ
æľ į
ar i
th ical
v iron
è ĥ
or d
Ġs ign
éĩ Į
ou nd
o ple
åŁ º
Ġinform ation
Ġident ify
åĽ ŀ
Ġc re
éŁ ³
ib le
u b
è¿ Ĳ
Ġle ad
æ¸ ¸
æ¬ ¡
åĨ Ļ
éĤ £
g et
è į
Ġexam ple
ä¼ ĺ
å½± åĵį
is h
x t
æ º
éª Į
o b
å® ¢
å¤ ĩ
åģ ¥
è½ ¦
ç¤ ¾
ivid ual
ere d
l es
Ġen viron
Ġpe ople
æĺ Ł
ç ĸ
ç ĭ
Ġd et
æĹ ł
Ġ if
o se
it e
å¢ ŀ
é Ĵ
åĲĮ æĹ¶
è¿ °
æĸ¹ å¼ı
åĽ ½
é »
å¤ Ħ
Ġexam ples
æ ®
Ġint o
æĮ ĩ
Ġhum an
åĲ ĳ
ç¤ º
æķ° æį®
Ġ 3
Ġ J
è ı
çİ¯ å¢ĥ
al s
ers t
Ġe thical
ç» Ħ
ä¼ ł
Ġdiffere nt
Ġk now
åº ı
Ġind ividual
æıĲ é«ĺ
rou nd
å° ±
åı ĸ
åŃ ĺ
ä¸ ¤
çŁ ¥
our ces
c k
å £
in es
è¾ ¾
Ġman y
æķ ´
æł ·
dit ional
om m
çĶ ±
éĢ ł
å®ĥ ä»¬
u es
Ġm ent
Ġimport ant
Ġo pt
Ġlo c
p h
Ġpro cess
Ġalgorith ms
è®¾ è®¡
Ġsoc ial
ver y
åĪ Ļ
ä¾ĭ å¦Ĥ
è® ¤
Ġa ut
Ġs erv
g g
äº§ åĵģ
è§ Ħ
çľ ĭ
ve l
æĸ¹ æ³ķ
Ġb en
åĽł æŃ¤
c are
p er
åĬ Ł
å»º è®®
Ġp os
æ ¤
w e
åĮ º
i qu
Ġre al
æĹ ¥
Ġredu ce
a f
ang u
Ġs k
Ġ ed
erst and
åĨ µ
m ot
åħ Ī
ç ¥
åºĶ è¯¥
Ġth rough
Ġcon c
åıĳ å±ķ
è¯ ķ
æ¡ Ī
Ġenviron ment
åı £
Ġad v
åĪ «
Ġben ef
æ¸ ħ
åĳ ³
åħ ī
Ġdevelop ment
en g
å¦Ĥ ä½ķ
ç® ¡
iv ers
åĲ Ħ
Ġr is
ro w
er gy
è®¡ ç®Ĺ
ä¿¡ æģ¯
Ġpro duct
è¾ ĥ
è® º
èĩªå·± çļĦ
æĬ ¤
åı į
åħ¶ ä»ĸ
åĪ Ĺ
ç» Ĩ
ç© º
Ġg reat
e ar
æº Ĳ
j ect
çĶŁ æ´»
ä¸Ń çļĦ
Ġund erstand
è ĭ
h at
Ġpro gra
ç Ĭ
éĩ ĳ
Ġinclud ing
Ġacc ess
ĠĠĠĠ ĠĠĠ
è¯ Ĩ
ç ¦
o g
è£ ħ
Ġar t
Ġw rit
Ġinc re
Ġp h
æĸ¹ éĿ¢
Ġp ract
Ġus ing
é¡ ¹
æİ ¥
Ġway s
Ġl angu
æĶ ¯
Ġch all
åİ »
__ __
im ate
æĸ Ń
è ¨
Ġw ell
l l
Ġp ol
æĢ ģ
Ġ ra
C an
åİ Ł
b er
è¨ Ģ
ç« ĭ
Ġg en
éħ į
æ· ±
t e
ä¸ ī
ç§ ĳ
ĠF or
çº ¿
ç ħ
æ ¼
åķ Ĩ
æĿ Ĳ
Ġsign ific
Ġg u
Ġde cis
Ġtra in
Ġa g
Ġc reat
å® Į
æĹ¶ éĹ´
Ġon e
è Ħ
Ġn at
åŃ¦ ä¹ł
çļĦæ ķ
c ed
Ġwhe n
Ġb i
è İ
æĽ´ åĬł
iv es
p ort
å·¥ ä½ľ
v ing
Ġbe en
æĻ º
Ġl ife
å¼ ķ
ar m
çİ ĩ
çĶ¨ æĪ·
ä¹ ī
ä» ½
è¯ Ŀ
in ess
c om
åº ·
åĩ ı
ä» Ģ
è¾ ĵ
Ġv ari
c on
Ġmo d
ä»Ģ ä¹Ī
Ġen ergy
æĬĢ æľ¯
ert ain
m m
ver all
åĪ Ĵ
Ġro bots
Ġor gan
æİ ¨
ant s
åĩ Ĩ
d s
æŀ ģ
ç Ļ
Ġre qu
Ġ ess
ç® Ģ
ust ain
æ ¨
Ġst r
c ing
ab ility
re e
Ġed uc
åİ Ĩ
Ġcre ate
åģ¥ åº·
Ġdes ign
i ps
åģ ļ
èĬ ±
in k
èı ľ
æī ¾
æ® µ
æµ ĭ
Ġ V
ĠB y
å Ķ
é¦ ĸ
è¯ į
Ġwhe re
Ġdis c
äºĨ è§£
r ic
ä¸ Ķ
è¶ ³
æĺ¯ ä¸Ģä¸ª
ar ch
ç§ ¯
å¸ ¦
Ġwh ile
Ġsignific ant
çł ģ
æĪ ¿
Ġbe ing
Ġlangu age
it ive
2 0
Ġanalyz e
æĻ ¯
è Į
ri b
æ¨ ¡
ĠS t
è´ ¹
' t
Ġhealth care
Ġexperi ence
Ġ 5
ä¸ª äºº
ay s
è± ¡
p lo
Ġw ould
èĻ ĳ
æĶ ¶
é¢ Ħ
é¢ Ĩ
ä¿Ŀ æĮģ
en ces
åı ª
èĩ ´
æĪ ı
Ġment al
Ġfe w
at es
è¿ĩ ç¨ĭ
å®ī åħ¨
Ġs ustain
Ġw ere
å¤ ª
ç Į
Ġspec ific
Ġwor ld
çŃ Ķ
`` `
Ġt ake
åħ »
éĢ Ł
e ver
S S
éĶ Ģ
Ġb o
he s
Ġm us
æľį åĬ¡
è§ Ĵ
t en
æŀ Ĳ
p ow
d ict
v ent
1 0
çļĦæ Ĺ
ĸ çķ
Ġpro t
ç½ ®
Ġh igh
Ġb us
Ġind ust
åĲ ¦
c ial
äºº ä»¬
ĠA s
åĳ Ĭ
ad e
æĶ ¹
ç Ĺ
Ġh ad
Ġhe r
Ġj ust
ï¼ Ľ
è´ Ń
ç¬ ¬
é ĵ
Ġw ater
Ġf ood
éĺ Ł
a us
Ġchall eng
åħ į
æĸĩ åĮĸ
Ġmo st
é ¸
ç½ ĳ
çĽ ´
Ġs m
Ġact iv
plo y
O verall
å¿ «
ru ct
Ġindividual s
å§ ĭ
g ies
æŁ ¥
çĪ ±
i ety
I n
åĪĨ æŀĲ
è§ Ĩ
æ¸ ©
ç» ´
ol ut
åŁ Ł
omm end
Ġcom ple
æķ Ļ
Ġb u
Ġeduc ation
at her
Ġ 4
t ing
Ġf ind
æ² ¡
Ġh is
ä¹ĭ éĹ´
Ġeffect ive
Ġat t
Ġre se
èĥ½ åĬĽ
åŁ İ
Ġal low
Ġa v
Ġpro mot
æĻº èĥ½
æ» ¡
åħ ±
ie w
c ome
ç³» ç»Ł
Ġrespon s
äº Ĵ
Ġc ult
pow ered
Ġrec ommend
èĲ ¥
O SS
Ġch ange
è¯ ģ
v ed
æİ Ĵ
è§£ åĨ³
ic i
ĠH ow
Ġfe el
æľ Ī
Ġwh at
ä»¥ åıĬ
Ġse e
åŃ ©
b s
Ġs ur
æ £
al ity
Ġv is
ç¡® ä¿Ŀ
p ect
å®ŀ çİ°
Ġc are
å¹ ¿
ill s
åº Ń
as es
å¤ į
åºĶ çĶ¨
çļĦæ ĥ
ard s
Ġadd ress
Ġcomp an
Ġinv ol
Ġcustom er
åĽł ä¸º
Ġstud ents
Ġin s
æ³¨ æĦı
æŀ Ħ
æ¬ ¢
æµ ·
åı Ĥ
èĩª çĦ¶
é ©
ĠThe se
w n
æĺ ĵ
çĬ ¶
re n
Ġt reat
Ġbenef its
Ċ ĠĠĠĠĠĠĠ
å¯¹ äºİ
æĢ Ŀ
id er
ĠY es
Ġ K
åĸ ľ
Ġ ke
Ġen g
Ġpo p
o st
p are
Ġm on
æ¬ ¾
ĠM OSS
Ġem ot
Ġa c
ç¼ ĸ
f ore
åı ¥
Ġv al
il y
Ġis s
èĤ ī
èĩ ³
æ¸¸ æĪı
we en
Ġinclud e
Ġprot ect
åħ³ ç³»
éĻ ©
Ġse ver
Ġth an
éľĢ æ±Ĥ
ç» ĥ
ĠThe y
is s
y s
Ġj ob
éĺ ³
æ Ĳ
Ġbet ween
Ġm ach
---- ----
èĢĥ èĻĳ
è´¨ éĩı
Ġbus iness
w or
ic k
e g
åħ ħ
ç ¯
æĿ ¡
n er
a pt
Ġapp ro
Ġpl ay
æ²¡ æľī
¤ Ĳ
æľ ª
æĪ ĺ
å®¶ åºŃ
ãĢ ĭ
en cy
ĠC h
ãĢ Ĭ
Ġprovid ing
Ġres ources
âĢ Ļ
Ġass ist
Ġnat ural
è¯ Ħ
ä¾ ¿
Ġs af
åħ· æľī
è° ¢
çĥ Ń
s s
et h
ol d
Ġper form
Ġsever al
é ¤Ĳ
Ġe ach
è½ ¬
c i
Ġt y
Ġp ub
æ´» åĬ¨
oc us
çī Į
è¶ Ĭ
åĽ ¢
è½ »
è¯Ń è¨Ģ
Ġare as
éĩ ĩ
f t
ri end
å· ²
å¸Ĥ åľº
it ion
i ents
ç®¡ çĲĨ
è® ¸
äºº ç±»
èº« ä½ĵ
iqu e
Ġpart ic
ç» Ń
age ment
v es
ç¬ ¦
l ine
çº ¢
åĲ ¸
Ġpat ter
00 0
ç¤¾ ä¼ļ
åĨħ å®¹
Ġorgan iz
ou gh
Ġ ve
åŃ© åŃĲ
æĸ ½
æ¤ į
åĩ ł
ä½Ĩ æĺ¯
Ġa ff
Ġn um
le ment
èī º
è ĳ
Ġc ar
ag es
ab or
æĺ¯ä¸Ģ ç§į
Ġin st
è Ľ
ä¹ĭ ä¸Ģ
è· ¯
åį ³
Ġm ain
éļ ı
H ow
å¿ ħ
ç¨ĭ åºı
éŁ³ ä¹Ĳ
re d
æ² ¹
Ġoff er
et s
ç ¢
Ġd uring
çļĦ äºº
æĽ´ å¤ļ
Ġd i
ä»£ çłģ
èİ ·
åħ ĭ
Ġgu id
ä¸» è¦ģ
Ġf am
æİ §
éĢļ å¸¸
ĠA d
å¤Ħ çĲĨ
ur n
ow er
åĳ ½
æı ı
Ġsk ills
Ġto ol
w are
æĸĩ æľ¬
Ġpatter ns
çĽ® æłĩ
ac y
æī ĵ
åŁİ å¸Ĥ
Ġe very
r ies
è¯ »
éģ ¿
çĻ ½
éĢĤ åĲĪ
Ġpat ient
çľ Ł
ot h
å¥ ¹
åĶ ®
ä¸Ģ ç§į
Ġm ade
ä½ İ
is e
Ġre m
æ¶ Ī
åĲ «
a ir
Ġgen er
o y
ç² ¾
æĥħ åĨµ
ight s
Ġexp l
è§ ģ
Ġpre dict
ç± ³
æĽ´ å¥½
ä¿ ®
Ġcl imate
Ġf ocus
Ġg row
å®¢ æĪ·
ä¸į æĸŃ
it or
ĠE n
çº ¦
æĺ¯ åĲ¦
ä» ħ
æĪĳä»¬ çļĦ
æľ Ľ
o p
Ġm aking
y th
cc ess
Ġo wn
gg est
Ġt as
ut ure
Ġmod el
p ut
Ġrese arch
ere st
éļ ¾
Ġ [
i el
ation al
Ġcommun ic
ç¥ ŀ
ç© ¶
Ġre st
æĪĲ ä¸º
k ing
p r
åĮ »
c ur
èĤ ²
Ġ '
è¿Ļ ç§į
ç¯ ĩ
Ġc he
ow n
éĻ ħ
Ġf in
åĪ¶ ä½ľ
Ġsu ggest
å¢ŀ åĬł
Ġmed ia
rib ut
çļĦæĥ ħ
åĬł åħ¥
Ġc le
åĳ ¨
ç« ł
Ġth ink
Ġloc al
pport un
ĠY ou
Ġpl an
Ġev en
éĽ Ĩ
å· §
a x
Ġchalleng es
Ġpro f
ĠC an
Ġconc er
Ġf uture
åĬ ¿
Ġre f
èģ Ķ
Ġs elf
æĪĸ èĢħ
b le
åĽ ´
è¿Ĳ åĬ¨
Ġin f
éĩ Ĭ
Ġsustain able
Ġte xt
Ġg ra
äº Į
åĵģ çīĮ
ä¸įåĲĮ çļĦ
l ed
çĭ ¬
Ġo pportun
Ġcont in
y m
Ġg et
å¯ Ĩ
éĻ ¤
æ ħ
éģ¿ åħį
Ġ +
è§ ī
Ġre t
å¸ ĥ
Ġint erest
Ġsoc iety
ç»ĵ æŀľ
åĲ ¬
é¦ĸ åħĪ
Ġb re
Ġ2 0
ĠHow ever
è® °
on s
è¿ ĳ
å¼Ģ å§ĭ
Ġbu ild
Ġbe h
' m
v ers
Ġg ood
çĲĨ è§£
res ent
ç¦ »
åĬŁ èĥ½
Ġeff ort
l abor
é» ĳ
Ġbet ter
Ġre ad
å¾ ĭ
èĽ ĭ
he d
ä¹ °
å¯¼ èĩ´
Ġimp lement
ç ¿
äº «
å¤ ´
en se
Ġl ong
ot her
é¥ ®
åŃĺ åľ¨
çļĦæ Ħ
ä¸Ģ ä»½
yth on
n ing
åĩı å°ĳ
åĢ Ļ
ä¸ ĵ
åĲĦ ç§į
è ħ
å° ½
åį ĩ
æĬ ¥
Ġpub lic
Ġl ar
ä½ł çļĦ
a ut
é¢Ĩ åŁŁ
æ ļ
ol low
èģ Į
Ġch ang
Ġb est
h ip
åĨ į
ak es
Ġch at
it ed
Ġp ower
ä¿Ŀ æĬ¤
ä¹ ¦
è®¡ åĪĴ
éĩįè¦ģ çļĦ
åıĺ åĮĸ
il ities
Ġcons ider
æĪĳä»¬ åı¯ä»¥
éĤ£ ä¹Ī
Ġ ide
æ¼ Ķ
ag ing
Ġb ased
å® Ŀ
Ġr ange
Ġres ult
Ġm em
çħ §
Ġle vel
c ou
Ġb r
T h
ä¼ ģ
å»º ç«ĭ
Ġun ique
è® Ń
Ġm ark
è®¸ å¤ļ
è¡Į ä¸º
Ķ ç©¶
çļĦæ Ĭ
Ġs et
éª ¤
t s
Ġh ist
Ġa round
Ġre v
åħ¶ ä¸Ń
ï¼ ģ
æıı è¿°
æľĢ åĲİ
Ġs im
n ect
åĽŀ çŃĶ
éĺ ²
èī ¯
åĪ° äºĨ
ä¸ ĸçķ
æĸ¹ æ¡Ī
æĿĲ æĸĻ
ä¸ĸçķ Į
æĽ´å¥½ åľ°
ä¸¤ ä¸ª
Ġem ploy
Ġtr y
æ ĵ
Ġb ack
åĪ ĩ
Ġsu ccess
Ġdecis ions
Ġth ose
å¯ Į
Ġf act
æİ ¢
è¶ £
Ġpract ices
åĲ Ĺ
æī į
çİ ©
pt ion
æĸĩ ç«ł
Ġfe at
Ġpre vent
Ġwrit ing
çļĦæ Ģ
Ġn o
ä» ĭ
éĹ ¨
Ġd el
æ Ĵ
Ġopt im
in ation
Ġ Ċ
us ion
Ġacc ount
l ing
Ġd ivers
. "
at h
èĭ ±
ä¼ģ ä¸ļ
Ġg rou
åľ° çĲĥ
å¤ ±
Ġpersonal ized
ĠH e
è¡¨ è¾¾
cur ity
Ġf ollow
äº§ çĶŁ
Ġe ar
åİ ĭ
ver n
Ġiss ues
åĿ ĩ
é ²
Ġd r
iv ing
Ġtrain ing
Ġris k
åĩ ½
åı ²
æ ĳ
çļĦæĹ ¶
og n
Ġrequ ire
Ġenvironment al
b ack
éĶ ®
çĸ Ĺ
Ġinter act
åĽ¢ éĺŁ
æ¯ı ä¸ª
çĦ¶ åĲİ
Ġd ist
çĶ¨ äºİ
è®¤ ä¸º
åĩ½ æķ°
Ġs ent
Ċ ĠĠĠĠĠĠĠĠ
Ġredu cing
å¹ ²
Ġre p
Ġc aus
Ġmus ic
ç ª
Ġmon itor
Ġfor m
é¢ ľ
çĹ ħ
é¦ Ļ
Ġof ten
åı¯èĥ½ ä¼ļ
åĳĺ å·¥
Ġha nd
æĬ ķ
Ġneed s
æŃ¤ å¤ĸ
åı ĭ
iv ity
Ġactiv ities
åĸľ æ¬¢
Ġp ur
i an
s elf
åĬ¨ çī©
com es
å ©
Ġpr iv
a z
Ġrel ations
Ġmach ine
çļĦæ °
ä»· æł¼
ä»· åĢ¼
ç´ ¢
Ġfe ed
ä¸Ģ ä¸ĭ
Ġte am
Ġindust ry
è´ ¢
ĠP ro
Ġw ant
ç§ °
Ġcl ass
Ġlo ve
åħ³ äºİ
è¾ĵ åħ¥
Ġtrans port
Ġcomple x
Ġy ear
éĶĢ åĶ®
å¯ »
i ence
ist s
æĶ¯ æĮģ
Ġm ind
Ġf un
Ġch ar
æĮ ī
Ġconcer ns
con om
ç®Ģ åįķ
ä»¥ä¸ĭ æĺ¯
Ġst art
å¹¶ ä¸Ķ
av i
ä¸Ń åĽ½
åħĥ ç´ł
Ġcon f
Ġpos itive
Ġc ur
Ġc ount
er y
å ¡
å® ¤
Ġco st
Ġe qu
Ġpol ic
ast e
a w
éħ Ĵ
cou ra
iv en
pl ace
ch ie
çļĦæķ °
åĽł ç´ł
Ġf l
is m
Ġmed ical
Ġhum ans
Ġaut om
ertain ly
Ġ 0
Ġoff ers
Ġdet ect
Ġ 6
é£İ æł¼
Ġsh ow
çģ «
Ġan im
é¢ľ èī²
le ase
a ve
åĵ ª
ĠThe re
ä»¥ ä¸Ĭ
æľª æĿ¥
X X
çī ĩ
u ch
Ġtas ks
åħ· ä½ĵ
æ¤į çī©
Ġm in
èīº æľ¯
ic ult
Ġexperi ences
æİ§ åĪ¶
b e
Ġpat ients
å ²
ĠW e
Ġrec ogn
çĥ ¤
Ġsm all
åĿ Ĺ
å Ħ
å¤ª éĺ³
ct ion
Ġ ent
æį ¢
Ġbe fore
Ġbe come
å·² ç»ı
è¡¨ çİ°
Ġexp lo
Ġa chie
ä»» åĬ¡
å¤§ çļĦ
Ġd ay
Ġf ound
å± ±
on d
Ġtreat ment
pe nd
he n
Ġcon dit
ç¡® å®ļ
Ġbusiness es
ĠW h
æīĢ æľī
Ġdevelop ed
ç» Ī
æŃ¥ éª¤
Ġdiff icult
åı ·
ĠR e
éĶ Ļ
Ġch o
Ġqu est
Ġtrans pare
Ġpro ject
Ġcommun ity
o v
å¸ Ī
å¼ ł
åĪĨ ç±»
äºº çļĦ
s is
çĽ Ĭ
o id
ĠA n
w ays
Ġe as
Ġaff ect
Ġother s
Ġreg ul
æĢ§ åĴĮ
åĸ Ħ
ag n
ä½ľ ä¸º
åı¯ä»¥ å¸®åĬ©
åĦ ¿
Ġorganiz ations
é¸ ¡
åħ ´
Ġf riend
Ġ $
Ġdet ail
Ġtra ditional
Ġdesign ed
è´Ń ä¹°
ä½ĵ éªĮ
ç» į
er m
Ġcon nect
è¿Ļ æł·
Ġrecommend ations
Ġb oth
Ł éĢļ
æ¯ į
Ġs it
ä½ľ çĶ¨
ä»ĭ ç»į
Ġst e
ĠS ure
åı °
æĤ¨ çļĦ
Ġs he
Ġman agement
j oy
è´ Ł
Ġpromot e
Ġvari ous
( "
p or
Ġs ens
Ġess ential
get her
ular ly
äº ī
ir st
Ġo p
Ġspec ies
çİ° åľ¨
ch o
Ġbeh avi
çŃ ĳ
å¥ ³
Ġqu ality
Ġex t
è ¥
å®Į æĪĲ
æĢ» ä¹ĭ
éĥ¨ åĪĨ
ä»İ èĢĮ
åĽ ¾
Ġty p
Ġstr ate
è¥ ¿
Ġhe re
ar s
å¸ Į
çļĦæ Ŀ
å° Ŀ
e e
i er
Ġe c
ical ly
er ing
å¿ µ
ĠD e
Ġne g
å»º çŃĳ
Ġserv ices
Ġab le
im es
Ġopt ions
çĽ¸ åħ³
Ġsu b
Ġdecis ion
ĠC ertainly
Ġ åľ¨
æ ¢
Ġserv ice
) :
å¸¦ æĿ¥
Ġch ild
è§£ éĩĬ
ir t
ç Ĩ
ä¸į ä»ħ
æĿ ¾
ç§¯ æŀģ
r on
åı ¤
çł Ķç©¶
ç² ī
h or
Ġprof ess
çļĦ éĹ®é¢ĺ
Ġopportun ities
åİĨ åı²
Ġde f
ĠA m
Ġg r
a ur
å± Ĥ
çŃ ĸ
Ġpop ular
æ´ ģ
åıĳ çİ°
Ġpo em
èµ Ľ
Ġo b
Ġd on
Ġs ound
Ġtransport ation
i ous
åı ¦
Ġro le
Ġf iel
ç§ĳ åŃ¦
èĢ ģ
re en
æľī æķĪ
Ġc or
Ġfeed back
Ġtechnolo gies
äº¤ éĢļ
Ġad apt
' re
erv ation
Ġcommun ities
çİ° ä»£
Ġlo ok
Ġf ac
çĶµ å½±
Ġcol lect
å¾Ĺ åĪ°
h ips
Ġav ail
ere n
ä¸Ģ èµ·
çī Ľ
Ġpos s
Ġwe ather
Ġeffort s
¿ Ģ
æĹ ħ
o h
Ġcol labor
æĭ ¥
æĪĲ åĬŁ
èİ· å¾Ĺ
å± ħ
Ġt re
Ġs ources
Ġstud y
Ġprogra ms
éĻ Ĳ
Ġt ips
Ġmark et
al ly
å® ³
w ards
æ£ Ģ
ä¸Ģ ç¯ĩ
ri or
Ġto p
Ġe nd
å ĭ
Ġlar ge
ici ency
Ġde c
å®ļ çļĦ
ic ient
è¿ĩç¨ĭ ä¸Ń
lic ations
ç¼ º
Ġto ur
Ġto gether
äºº å·¥
Ġtool s
æĸ ¯
æ° ĳ
æĬ Ĭ
ä¹ĭéĹ´ çļĦ
çī¹ çĤ¹
Ġbe l
ditional ly
åĪ© çĶ¨
è¾ ¹
éĻ į
ĠI f
é¢ Ŀ
åį ı
å¾ Ģ
l ish
è¯ ī
in s
å¥ ¶
Ġe conom
Ġinv est
ĠD o
t ain
åĩº çİ°
çļĦ å½±åĵį
ater ial
Ġs ure
Ġp ass
çĶ »
è´ £
ç»ĵ æŀĦ
æķ ħ
æĥħ æĦŁ
æ ¿Ģ
ell ig
ä¼ Ĺ
æ¯Ķ è¾ĥ
ter n
Ġout comes
u p
Ġbe aut
re ad
çĶŁ æĪĲ
æķ° åŃĹ
Ġde m
i res
åı¯ä»¥ éĢļè¿ĩ
æĸ° çļĦ
Ġde ep
å ¨
çĭ Ĺ
åħ³ æ³¨
çĶŁ åĳ½
ä¼ł ç»Ł
Ġst ay
æŃ Į
åħ³ éĶ®
Ġpl ace
ä¸» é¢ĺ
å¾Ī å¤ļ
èĪ Ĵ
Ġprofess ional
y le
æĽ ²
1 9
Ġess ay
Ġg ive
ç³ ĸ
Ġon ly
æŁ Ĳ
Ġph ys
å¯¹ è¯Ŀ
Ġcont ro
Ġam ount
ce pt
iz ation
ç¼ĸ åĨĻ
åıĹ åĪ°
Ġal ways
æ¯Ķ å¦Ĥ
Ġpriv acy
a u
____ ____
Ġrespons ible
( )
çŃī çŃī
Ġm aterial
Ġon line
é ¼
æĶ ¿
åĽ Ľ
Ġen joy
åľ Ł
Ġsaf ety
Ġt w
Ġcommunic ation
ä¸ ½
æĺ ¾
olut ion
er g
į ä½ľ
Ġus er
Ġemot ional
t ime
é ¾
Ġse curity
Ġs ense
el ines
åĬ ±
çī© è´¨
u ra
Ġsh are
Ġanalyz ing
it al
é ±
irt ual
Ġvis it
b ers
Ġc our
Ġpro ble
è®¾ å¤ĩ
at ch
l and
é± ¼
æĪĳä»¬ éľĢè¦ģ
ç¨ ³
ib ility
Ġeff iciency
å£ °
è Ĵ
æľº åĻ¨
Ġcle ar
åĪ¶ å®ļ
iz ing
Ġcondit ions
l usion
Ġlo w
Ġl im
her s
Ġris ks
ç¿ »
Ġle t
åĴ ĸ
å¿ĥ çĲĨ
è¿ ľ
pr int
Ġchang es
Ġme as
Ġimpro ving
Ġc rit
5 0
å¸Į æľĽ
Ġa ud
åį Ĺ
æĹł æ³ķ
Ġneg ative
é¡¹ çĽ®
u nd
at s
Ġcompan ies
æī¾ åĪ°
Ġcont ribut
æŃ£ ç¡®
é» Ħ
å± ŀ
Ġunderstand ing
Ġm ult
Ġc lo
å¾ ģ
Ġp rior
r im
äººå·¥ æĻºèĥ½
Ġvari ety
Ġt aking
å Ĥ
as ter
od y
Ġ {
çļĦ éĩįè¦ģ
Ġf ore
èµĦ æºĲ
è¦ģ æ±Ĥ
Ġfeat ures
èį ī
m e
èĮ ĥ
Ġo per
çº §
é² ľ
æĬĢ å·§
ĳ æĪĺ
ç±» åŀĭ
æĿ ¿
è½ ¯
e w
Ġrest aur
Ġwith out
ruct ure
çļĦ æĺ¯
ç ı
Ġl ist
ur ate
Ġbo ok
äº ²
åº Ĺ
ä¹Ł æĺ¯
ä»» ä½ķ
Ġc am
ĠB e
Ġgo vern
Ġbehavi or
è®Ń ç»ĥ
Ġfam ily
æĿ Ĥ
Ġc ity
Ġappro ach
Ġacc urate
Ġs om
Ġe l
èĪ ŀ
è ŀ
åŁº æľ¬
Ġdis e
Ġen coura
ĠW hat
å ĥ
è¯ ¦
¦ Ĥ
å·¥ åħ·
åķ ¡
Ġst ill
cho ol
æĦŁ åĪ°
çĶŁ çī©
åĴĸ åķ¡
åĩĨ å¤ĩ
Ġw aste
Ġev ents
æķĻ èĤ²
Ġ 8
Ġm ust
i ed
as ing
å½¢ æĪĲ
Ġproduct s
åħ ¸
è® ²
f ter
å· ®
l ess
Ġc ro
Ġfin an
åıį åºĶ
åĪĽ éĢł
Ġguid elines
åĪ ¤
ä½ľ åĵģ
è¡¨ ç¤º
å¼ Ĥ
Ġknow n
Ġt est
è¯ ¯
o pe
Ġus ers
A I
å¾ ·
ne w
è¿ ½
iqu es
æ¨¡ åŀĭ
åĬĽ åĴĮ
Ġhist ory
ĠA l
æĬķ èµĦ
å°Ŀ è¯ķ
an k
Ġh ome
éĴ Ł
ä¸ °
èĪĴ éĢĤ
Ġincre ase
Ġh ab
åĪ »
è¾ĵ åĩº
Ġlead ing
Ġ 7
é£İ éĻ©
Ġperform ance
Ġha pp
åŃ £
Ġst and
t y
ç¦ ı
Ġcustom ers
åį İ
Ġbel ie
Ġcompan y
å½ ķ
é£Ł çī©
ĠU n
Ġsu mm
re nt
ĠC on
éĢĤ éĩı
an ced
Ġ i
Ġl ight
Ġanaly sis
å° Ĭ
ĠU se
ou se
t ed
Ġchar act
Ġ #
t o
ç» ľ
ä¸į æĺ¯
Ġdevelop ing
åŁ ¹
Ġstrate gies
Ġm ight
çŁ Ń
çļĦæ İ
Ġf irst
èĥ Į
çĮ «
Ġinclud es
åĽ Ń
Ġdi agn
Ġgrow th
ä¸ĵ ä¸ļ
Ġdo es
1 2
ç» ¿
Ġke ep
è¯¦ ç»Ĩ
åĥ ı
åıĳ çĶŁ
f act
åı¯ä»¥ åľ¨
ç« Ļ
æĭ ī
æµ İ
Ġchat bots
Ġbre ak
è¡ ¡
çŁ ³
æĮģ ç»Ń
l ife
Ġ1 0
æ´ Ĺ
ĠAd ditionally
å£ «
em ber
Ġgo als
å¾ ®
Ġv iew
Â ·
o ve
åŁº ç¡
Ġoptim ize
Ġt em
Ġd own
åŁºç¡ Ģ
è¶ ħ
er cis
Ġl ess
e es
æĿ ĥ
Ġke y
Ġwor ks
è® ¨
åı¥ åŃĲ
Ġro bot
us s
åħ¨ çĲĥ
ç»ı æµİ
æīį èĥ½
eg r
ä»ĸä»¬ çļĦ
äº Ķ
èµ· æĿ¥
ç ĵ
Ġfact ors
Ġcult ural
æľ ¨
Ġwork ing
ä¼ ¼
èĲ ½
éĢŁ åº¦
ä½ ı
Ġeffect s
å© ļ
b r
åİ ħ
ra in
" )
åŃ¦ çĶŁ
" ,
Ġp ar
at form
Ġens uring
çĶ± äºİ
Ġm uch
Ġwor ds
Ġm ar
ç»ı éªĮ
ä¸º äºĨ
åĲĪ ä½ľ
v en
Ġ /
Ġfinan cial
wor k
or ies
æ² »
Ġtechn iques
æĭ¥ æľī
ra p
å° Ķ
Ġ est
Ġavail able
Ġl it
æ ¹
Ġeff icient
el s
o ver
Ġl and
Ġare a
Ġint ellig
Ġpre f
at ure
çŁ¥ è¯Ĩ
æĵ įä½ľ
å¾ ħ
ig ate
çļĦæ Ķ
Ġme an
b o
Ġcontro l
éĩĩ çĶ¨
ric ult
Ġprogra mm
Ġto wards
th ing
ä¸į è¦ģ
Ġth ough
å½ ©
Ġc ertain
Ġw ild
ä» Ĭ
Ġcons ervation
çŁ¥ éģĵ
Ġreal ly
çļĦ åľ°
i o
é¥ °
Ġf ul
çİ¯ ä¿Ŀ
Ġexplo re
çļĦæ ¸
Ġdivers e
åĬł å¼º
çļ ®
Ġemot ions
Ġav oid
' ll
çļĦæ ī
åį ¡
Ġpl atform
an ces
Ġsit u
ä» ĺ
ä½į ç½®
or ing
çĽ Ĳ
ä¸ ĩ
Ġde v
n ov
as h
Ġtw o
å® ł
b on
èµ °
åĪĹ è¡¨
Ġc y
èį Ĳ
ĠS ome
Ġexpl ain
Ġa ware
ç¤¾ äº¤
d ay
åı Į
æ² ŁéĢļ
æ° §
å¼Ģ åıĳ
åħ¬åı¸ çļĦ
Ġa ir
åĩ »
ar ing
éĥ½ æĺ¯
Ġlevel s
od s
Ġste ps
Ġc ap
æ´ ŀ
é© ¬
Ġret urn
Ġm et
çĶŁ æĢģ
ä¸° å¯Į
æŁ ĵ
æīĢ ä»¥
é¡ »
Ġ er
Ġf ra
3 0
è ĵ
âĢ Ķ
Ġ å½ĵ
a h
ä¿ ĥ
Ġlike ly
ĠĠĠĠĠĠĠĠ ĠĠĠĠĠĠĠĠ
åĪ Ŀ
Ġcreat ing
Ġf arm
Ġb al
Ġl ives
å®ĥ çļĦ
Ġab ility
ä¸Ĭ çļĦ
Ġsent ence
åĤ ¨
Ġr out
Ġprovid es
Ġag ain
å®ł çī©
éĢ Ĳ
Ġyear s
èŀ į
Ġphys ical
P ython
ĠE x
it ing
è°ĥ æķ´
ç½ĳ ç»ľ
æħ ¢
ç©º éĹ´
åĽ °
è± Ĩ
æĽ´å¤ļ çļĦ
ĠA r
Ġmain tain
å®ŀ éĻħ
Ġtra vel
Ġs at
p ro
çĶµ åŃĲ
æ± ½
e x
åģ ĩ
æĲ Ń
éļı çĿĢ
è¿ĺ æľī
ç¤ ¼
al e
Ġcons um
Ċ Ġ
n cy
Ġquest ions
f ort
m aking
Ġdes c
1 5
Ġinvol ves
Ġst ress
åŃĹ ç¬¦
he re
Ġimpact s
Ġex ercis
åĿ ļ
led ge
ç§ĳ æĬĢ
oc i
Ġeffective ly
æ¶Ī è´¹
Ġconc lusion
éĺ ħ
Ġst re
iss ions
æ· »
I t
éĿ Ļ
Ġv irtual
è¡ £
Ġachie ve
our ce
è¿ ŀ
ac ks
è¡¨ æł¼
Ġimport ance
èĩª æĪĳ
The se
n um
çļĦæ ł
Ġrelations hips
Ġwork ers
g ical
or por
ers on
åĳ ¢
nd s
æİ¨ èįĲ
oh n
å¿ħ é¡»
å®¹ æĺĵ
ĠG o
Ġt ell
ĠR es
on om
Ġbe c
æ³ Ľ
p os
Ġmo ve
Ġst ory
æŃ ¢
Ġprior it
Ġindust ries
è ľ
Ġposs ible
ĠM an
Ġexp ress
ab ilities
Ġint egr
ä»£ è¡¨
Ġrespon d
åĪĨ éĴŁ
æľº ä¼ļ
Ġth ings
äº¤ æµģ
Ġm eth
ur ther
Ġw ide
èĳ Ĺ
æĪĳ çļĦ
ĸçķ ¥
id es
eth ing
ĠWh ile
p an
çŃ ĸçķ¥
Ġc ent
Ġp lease
olo gy
ura cy
å¾ ª
w ard
n ce
Ġthe n
çª ģ
å¥ ĩ
Ġb lo
a i
æŀ Ĺ
ç®Ĺ æ³ķ
ç» ¼
Ġpr int
ac es
l u
ª æĸ½
p re
çļĦæĦ ı
Ġs ol
Ġover all
h old
Ġ es
çļĦ ä¸Ģ
éģ ĩ
Ġpop ul
å°ı è¯´
æ³ ¢
åį ģ
ä¹Ł åı¯ä»¥
é£Ł åĵģ
Ġcont ent
å° Ħ
Ġrequ ires
æ£Ģ æŁ¥
ĊĠĠĠĠĠĠĠĠ ĠĠĠ
Ġgrou ps
Ġf air
Ġb l
å®ŀ éªĮ
æĮī çħ§
os p
st r
ä¸į èĥ½
Ġh arm
Ġpro du
çļĦæĬ Ģ
ç ĩ
t le
Ġanim als
è§Ĵ èī²
le v
æ¸ Ĳ
å¤į æĿĤ
Ġde pend
æĮ ĳæĪĺ
åĮħ åĲ«
Ġhelp s
Ġop en
Ġn et
ĠĠĠĠ Ġ
Ġstr ong
Ġj our
å¹¿ æ³Ľ
æķ´ ä¸ª
Ġe lect
Ġrespon se
åįķ è¯į
æľ ĭ
Ġ <
åĮĸ åŃ¦
éĴ Ī
Ġqu ick
ual ly
Ġsom ething
Ġtra ck
åº¦ åĴĮ
eren ces
æł ĳ
Ġacc uracy
Ġex c
é£ ŀ
Ġfiel d
å¯» æī¾
éħ ¸
Ġh ope
ç ĳ
Ġin nov
ç» ª
al k
Ġtyp es
Ġd id
åĬ ª
Ġc all
è¯ Ĺ
Ġear ly
ĠO ne
a pp
Ġcomm on
æľĢ ç»Ī
Ġche ck
Ġs ym
çĤ Ĵ
æĬĢ èĥ½
Ġen h
Ġag ricult
Ġim m
ç» ĩ
æ»¡ è¶³
Ġs chool
b al
Ġfollow ing
b ased
Ġwe bs
Ġcult ure
ĠC om
w ay
ä¸Ģ å®ļ
åķĨ åĵģ
ud e
çļĦ åıĳå±ķ
çĶŁ äº§
os ystem
Ġpl ant
åı ¶
åĲ ĥ
ä»ĸ çļĦ
d er
è¯ ¢
å®¶ åħ·
Ġf ree
ç§ »
æİ Į
Ġb ody
Ġp resent
Ġpartic ularly
Ġchild ren
Ġstud ent
) .
çī¹ å¾ģ
è Ķ
éĺħ è¯»
æķĪ çİĩ
Ġprogra m
éħ ±
åıĺ å¾Ĺ
i x
Ġcom e
çļĦæ ²
ĠT e
ĠT o
åħ± åĲĮ
Ġemploy ees
è¯´ æĺİ
Ġhe art
Ġm ot
æľĭ åıĭ
er ic
è¯ ĳ
Ġcur rent
æĪĲ æľ¬
Ġto o
çİ© å®¶
åĪĽ æĸ°
Ġec osystem
å¸¸ è§ģ
ä¸Ģ æŃ¥
Ġp res
Ġmult i
åĳĬ è¯ī
ä¸ ¥
Ġm it
Ġact ion
çĨ Ł
Ġhab it
åı£ æĦŁ
ç® ±
Ġus es
å¢ŀ å¼º
ç»Ļ åĩº
Ġ 9
Ġde p
Ġeconom ic
æĢ§ çļĦ
1 8
åĨ °
Ġhelp ed
åĲ¸ å¼ķ
çİ ĭ
Ġdiagn os
å ł
èģĶ ç³»
ç¾ ¤
ç»ĥ ä¹ł
æĪĲ éķ¿
Ġpo int
å®ļ æľŁ
åĳ ¼
èį ¯
æĿ ¯
æ¤ Ĵ
æķĪ æŀľ
Ġspec ial
æ· ·
åĩł ä¸ª
aus e
é Ĩ
æ¯Ķ èµĽ
è· Ŀ
W hat
Ġt imes
ic les
Ġ *
ç´ §
å¦Ĥæŀľ ä½ł
çĭ¬ çī¹
çģ µ
ç¨ İ
Ġcar bon
Ġbi as
åĬ© äºİ
Ġcon st
èĩª çĶ±
æĿ¥ è¯´
å°± æĺ¯
åį °
Ġme et
è§Ħ åĪĴ
çļĦç ¾
èĲ¥ åħ»
at ors
ç¨³ å®ļ
od e
çħ ®
Ġass oci
å¿ Ĺ
è¡Į æĺŁ
æĿ İ
Ġrev iew
åĩ Ģ
ĠR o
Ġknow ledge
ä»¥ ä¾¿
æµĭ è¯ķ
åĲĪ éĢĤ
s c
å½¢ å¼ı
Ġfriend s
Ġnat ure
Ġcrit ical
æ´ ĭ
Ġa fter
er ve
Ġre ce
çļĦæ Ń
æ±½ è½¦
çķ Į
Ġlo ss
Ġapp lications
å¤ļ ç§į
éĶ ħ
ä¸ ²
Ġins p
-- -
ĠS h
Ġv ol
l ut
o ks
se qu
Ġb ir
åĲĪ çĲĨ
Ġne cess
æĪĳ æĥ³
çŃī æĸ¹éĿ¢
é¼ ĵ
Ġso ft
Ġl ive
å°ı æĺİ
ĠI nd
Ġbr ing
æĺ¯ æĮĩ
Ġso il
il ar
ä¸ ľ
æĿ¡ ä»¶
Ġt ri
äº ®
Ġm om
æı ¡
ä¼ °
ŀ äºī
çĽ ĳ
èĤ ¤
è´¢ åĬ¡
æ·» åĬł
é¥® é£Ł
Ġallow ing
åº ķ
Ġr ight
Ġexp ert
Ġsu pp
Ġin it
çļĦæ µ
ar get
Ġexp ect
Ġ1 9
Ġmeas ures
olut ions
j ust
ar c
å° ļ
Ġpract ice
æľī åĬ©äºİ
å¤§ éĩı
' ,
im ent
Ġcontin ue
Ġdisc uss
1 00
éļ ľ
çļĦæĦ Ł
Ġref lect
it ation
åį «
äºĨ ä¸Ģ
ne y
ĠL e
is ed
è¶ ĭ
äºĨ ä¸Ģä¸ª
Ġincre asing
çļĦæ Į
Ġst ru
æĢ» ç»ĵ
e ly
å® ĩ
Ġaut hor
è¡¨ éĿ¢
Ġ x
æķħ äºĭ
em ic
Ġrep resent
g er
Ġincre ased
on es
ain s
Ġtrain ed
Ġf ish
Ġst ate
åĨ ·
çĶŁ éķ¿
Ġre new
ord ing
åĮ Ĺ
æİ ªæĸ½
å¹³ è¡¡
Ġsuccess ful
ä¸ĭ éĿ¢
Ġactiv ity
èĮ ¶
éĢĤ åºĶ
èĦ ĳ
æİ¢ ç´¢
ff ic
ç»Ħ æĪĲ
at ives
äº ļ
Ġsc en
æ² Ļ
g ress
ä½¿ å¾Ĺ
æī ¿
Ġdisc rim
Ġassist ants
Ġex ist
çķ Ļ
Ġsp ace
æľĢ è¿ĳ
Ġide as
éĩĩ åıĸ
l ight
æ³¨ éĩį
çļĦæĹ¶ éĹ´
è¿ İ
Ġcom b
éĢĤ å½ĵ
Ġyour self
rit e
as on
åĮ Ģ
åı¯ä»¥ ä½¿çĶ¨
åħħ æ»¡
Ġval ues
æ ½
Ġbi ases
ä¿ĥ è¿Ľ
åľº æĻ¯
ro ss
åį³ åı¯
Ġc ru
Ġnum ber
Ġty pe
r ast
åĩĨ ç¡®
Th is
Ġp ast
çģ ¯
å®ļ ä¹ī
Ġs olutions
Ġt er
ä¿Ŀ è¯ģ
èĶ ¬
å¹ ¸
åī §
åħ´ è¶£
å ª
ent ion
av or
Ġsc ient
åĬª åĬĽ
Ġprovid ers
Ġpolic ies
al u
ĠI m
Ġallow s
Ġintellig ence
çļĦ æĸ¹æ³ķ
è¿Ļ æĺ¯
Ġ `
Ġem issions
Ġ å°Ĩ
Ġmean ing
Ġst yle
åİŁ åĽł
Ġstru gg
çļĦç¾ İ
if ul
dit ion
éĥ½ æľī
ç©º æ°Ķ
å®ĥä»¬ çļĦ
ä¼ĺ åĮĸ
Ġinf lu
åŁº äºİ
Ġdetail s
Ġtranspare ncy
Ġm ess
ĠC l
Ġg ame
p ri
è¶ĭ åĬ¿
å½ Ĵ
ç¿» è¯ĳ
æķ £
B y
é Ń
ĠAm eric
Ġproduct ion
Ġinc orpor
æĻ ļ
Ġinvol ve
Ġh ot
æĻ ®
b y
Ġf low
Ġem erg
åº §
Ġide a
åİĭ åĬĽ
éĿ Ĵ
om s
èģĮ ä¸ļ
Ġre port
Ġp ap
Ġthe rap
Ġs al
åıĤ ä¸İ
æĸĩ åŃ¦
æĲŃ éħį
o ot
) ,
Ġc r
Ġprocess es
g in
å¹³ åı°
å¯ Ł
Ġpromot ing
æļ ĸ
ake hold
ç» §
iv er
æ ¦Ĥ
Ġmodel s
Ġd ra
è ĸ
Ġgrou p
è¶³ å¤Ł
Ġg reen
Ġhealth y
Ġcom fort
Ġad ditional
ä¸Ģ æ¬¡
é¤Ĳ åİħ
Ġmaterial s
Ġman age
çļĦæ ¯
ä¼ ¤
åıĬ æĹ¶
Ġg lo
Ġst at
å¿« éĢŁ
Ġmonitor ing
ail y
ra nd
o ice
res h
ç»Ħ ç»ĩ
Ġund er
Ġnecess ary
Ġhelp ful
ĠC ol
é»ĳ æ´ŀ
åģļ åĩº
Ġcour se
Ġm at
Ġle g
Ġf ace
ä» ¤
èī¯ å¥½çļĦ
oc k
åĮ» çĸĹ
çĽ ĸ
id ence
Ġassoci ated
Ġpro gress
åľ Ĩ
Ġevery one
ç¼ ĵ
ĠEn g
w ord
èĵ Ŀ
å¤© æ°Ķ
Ġact ions
em s
ĠP l
å® Ļ
us h
é¡ ¾
Ġcost s
at or
ç© ¿
Ġamount s
èĶ¬ èıľ
. .
Ġman ner
Ġcon sequ
æ°Ķ åĢĻ
Ġins ights
be ing
at ory
en er
le x
Ġme ans
Ġcollabor ation
Ġpers pect
or m
pri ate
å°Ĭ éĩį
Ġt arget
è®° å½ķ
åĢ Ĵ
Ġrenew able
æĦ ¿
èĥ½ æºĲ
Ġin put
å®ĩ å®Ļ
a pe
Ġad just
er ies
Ġd ire
ä¾ Ŀ
ust r
f ect
Ġbeaut iful
Ġd ue
re ci
çĮ ®
èĥĮ æĻ¯
èĤ ¡
Ġd am
i k
Ġadv anced
çĽ¸ å¯¹
åĲį ç§°
Ġsh ort
Ġob ject
è¿Ļ éĩĮ
éĢł æĪĲ
èĲ¥ éĶĢ
çļĦæĥħ æĦŁ
ç¥ ¨
Ġcount ries
in ing
ist ic
Ġpl ans
è´£ ä»»
Ġst akehold
t he
Ġass ess
æĢĿ èĢĥ
e ch
æĪĲ åĳĺ
2 1
Ġd aily
Ġcomp ut
çļĦæĥħ åĨµ
æıĲ åĩº
Ġ âĢľ
åª Ĵ
ä¸Ń å¿ĥ
is hed
ĠS e
onom ous
er n
ç»´ æĬ¤
am es
Ġpriorit ize
çº ¸
èĤ ¥
Ġtem per
æ¸ħ æ´ģ
us e
æ± ¡
Ġmin im
æĺ¯ åľ¨
å¤§ å°ı
åĵª äºĽ
Ġapp reci
ren g
Ġregul ations
Ġ Z
éĶĻ è¯¯
r ans
èĢĮ ä¸Ķ
èĪ ¬
èĳ ±
è Ĩ
æ°´ å¹³
è´Ń çī©
åŃĹç¬¦ ä¸²
å¯¹ æĸ¹
Ġh im
Ġconsequ ences
å· ´
é¼ĵ åĬ±
Ġf il
äºº åĳĺ
è·Ŀ ç¦»
ĠW hen
çļĦæ° ´
çī© çĲĨ
åĲĮæĹ¶ ä¹Ł
åľ¨ è¿Ļä¸ª
åħ¶ æ¬¡
, "
æ¶ ²
çĶ ·
iv al
åı¯ä»¥ è®©
æĥ ¯
Ġadv ance
Ġve h
å¦Ĥæŀľ æĤ¨
Ġest ab
ri pt
ç« ¯
ä¸į ä¼ļ
Ġtranspare nt
æķ° éĩı
çĽ ĺ
Ġspe ak
Ġp ark
Ġstakehold ers
é º
Ġev ent
çļĦæķ° æį®
èĩª åĬ¨
ç»Ĩ èĬĤ
è¯Ħ ä¼°
æ¶ ¦
Ġpref erences
Ġve get
æį Ł
e qu
Ġg l
Ġp ain
o gra
Ġtra ffic
Ġo ce
ä¹ ĺ
e xt
âĢĿ ï¼Į
Ġan other
å¤ļ å°ĳ
Ġagain st
ç»ı åİĨ
è®¡ç®Ĺ æľº
èĢ Ĳ
è½¯ ä»¶
ĠP re
Ġpl ants
çĽ¸ äºĴ
é¢ ĳ
\ _
Ġs ame
ru g
Ġval u
Ġo cc
çļĦç ¤
Ġsustain ability
ĠS he
d e
ot e
Ġd ig
N A
Ġcru cial
æī §
å± Ģ
æĭ Ł
æĭ Į
Ġn on
Ġeng aging
Ġinter n
L P
æ¸© åº¦
æł ¸
æĬ¥ åĳĬ
æĿ¥ è¶Ĭ
h ood
ä¸ī ä¸ª
å¦Ĥ ä¸ĭ
çī© ä½ĵ
for ce
Ġneed ed
Ġim ages
Ġbuild ing
ici ous
Ġ æĪĳ
è¶Ĭ æĿ¥è¶Ĭ
æĶ¾ åħ¥
g o
éĻį ä½İ
å½ĵ åľ°
æ¶Īè´¹ èĢħ
ç £
ivers ity
é¢Ħ ç®Ĺ
ic le
æ·· åĲĪ
Ġpartic ip
Ġdis hes
Ġthrough out
Ġwith in
åı ³
é«ĺ çļĦ
Ġph ot
Ġtr ust
æĦı è¯Ĩ
ä»¥ ç¡®ä¿Ŀ
çĬ¶ æĢģ
Ġautom ation
1 1
Ġpo st
æīĭ æľº
wor ks
éĢ ı
åº ĵ
Ġw ind
Ġ= =
Ġprocess ing
èĮĥ åĽ´
æĦı ä¹ī
è¿½ æ±Ĥ
Ã ©
å¾ Ħ
éĿ ł
ä¸ ĸ
èĻ ½
ç« ŀäºī
Ġappro priate
æĽ´ å¥½çļĦ
Ġcharact er
c l
ç§ ĺ
it ude
Ġte ac
le ep
ĠDe velop
in ce
å· ¦
g round
è¡Į ä¸ļ
éĴĪ å¯¹
å¿ħ è¦ģ
Ġdet erm
-------- --------
Ġst reng
d o
Ġchalleng ing
or k
Ġan x
èī² çļĦ
Ġh ard
æĺİ ç¡®
åĪĨ äº«
æĶ¹ åıĺ
ä½ ³
åıª æľī
å±ķ ç¤º
Ġcam p
çº ³
a j
et ic
u ment
ä½ł åı¯ä»¥
Ġpol lut
Ġh ig
pp ing
e ad
çĦ¶ èĢĮ
ç¬¬ äºĮ
é¸ Ł
çī© åĵģ
ä¸ ¾
Ġencoura ge
pe cial
Ġac ross
el ves
äºĭ ä»¶
c le
æ ©
åªĴ ä½ĵ
n ers
Ġc al
èĻ½ çĦ¶
åĽ º
ä¹ł æĥ¯
Ġsaf e
èĥ½ éĩı
ist ics
ä¹ĭ åīį
Ġiss ue
å¤ļ ä¸ª
åĨ³ çŃĸ
è¾¾ åĪ°
æĹ ©
ä¸į åı¯
ä¸Ģ çĽ´
å· ¨
æĦŁ è°¢
ĠN ew
ä¸Ģ æ®µ
Ġmach ines
å°Ĩ åħ¶
ç»§ ç»Ń
Ġwor d
çī¹ åĪ«
Ġagricult ure
æĢ İ
éĢĲ æ¸Ĳ
éĵ ¾
è¯ ¾
Ġk ind
å¢ Ļ
è°¢ è°¢
Ġalgorith m
è£ħ é¥°
Ġal ong
Ġeas y
äº ĳ
è§£åĨ³ æĸ¹æ¡Ī
Ġaware ness
' ve
æĸ¹ åĲĳ
Ġne ver
Ġquick ly
Ġres pect
çļĦæ Ļ
Ġam ong
Ġaccount ability
Ġl aw
en ing
Ġdef in
Ġsur round
éĵ ģ
Ġpower ful
A n
Ġcaus e
æ ¥
æİĮ æı¡
è¿ĺ æĺ¯
Ġcreat ive
è¡ Ģ
Ġloc ated
un ning
åľ° åĮº
éĿ¢ ç§¯
éĽ ¨
Ġne ar
Ġinit i
ress ion
ä¸ĭ æĿ¥
2 5
é© ¶
¾ çĹħ
ab les
æľī è¶£
å¾ª çİ¯
çŃĶ æ¡Ī
çł ´
ic ation
éĻ ¢
æ²» çĸĹ
Ġad dition
äºĭ æĥħ
Ġbec ause
åı Ī
èĤ Į
çº ª
s ide
æĭ ħ
æ¹ ¿
åį Ĭ
é¡ º
ĠA nd
Ġrestaur ant
Ġv ide
Ġproble m
az ing
Ġmem bers
Ġn ut
Ġc ou
æµ ª
Ġ è¿Ļ
Ġhelp ing
ĠI s
æıĲ åįĩ
ĠĠĠĠ ĠĠ
Ġsh o
Ġre lev
Ġar g
Ġbal ance
ill ed
æĺ¯ ä»Ģä¹Ī
åĬĽ éĩı
ire d
å¤ ľ
åı¯ æĮģç»Ń
Ġper fect
* *
ific ation
æ¶ ī
Ġwild life
an e
Ġrel ated
å®¤ åĨħ
åº ľ
äº« åıĹ
our s
è· ĳ
åķĨ ä¸ļ
ach ing
Ġsu n
Ġrecogn ition
el t
Ġor der
å¹³ åĿĩ
g ing
ä¸ ´
çĤ ¼
Ġgo ing
åĳ¼ åĲ¸
Ġsoft ware
Ġre mot
èĳĹ åĲį
å¹¸ ç¦ı
Ġenh ance
èĻ ļ
Ġn ow
Ġth reat
Ġd est
åĿĩ åĮĢ
Ġac ad
åºĶ å¯¹
çľĭ åĪ°
c ast
è¾ Ĩ
ific ial
Ġ very
o ok
åĮº åŁŁ
¹ ģ
æĪ¿ éĹ´
æıĲä¾Ľ äºĨ
Ġmot iv
Ġaccess ible
åĨ³ å®ļ
Ġh y
å® Ī
Ġf lo
u g
Ġinform ed
åĵģ è´¨
çļĦç Ł
av es
ar r
ĠW ith
le t
è§Ĥ çĤ¹
en ge
è¡Į åĬ¨
f riend
ç³ ķ
Ġf urther
ĠE ns
ç§ ģ
Ġad o
Ġcle an
çĽ¸ åºĶ
Ġf re
pecial ly
è Ĺ
Ġc apt
çļĦç ľ
Ġsome one
Ġc ell
æĶ¾ åľ¨
æ¬¢ è¿İ
Ġ âĢ
Ġdev ices
çļĦ æĸ¹å¼ı
Ġjob s
au gh
n ot
æľī äºĽ
åħ¬ åħ±
g est
çļĦ çĶŁæ´»
çľ ¼
çļĦ ä¿¡æģ¯
ĠC ons
æİĴ åºı
Ġbenef it
re ct
å¤ ı
un te
ç¬¦ åĲĪ
ä¸Ģ ä½į
åĨħ éĥ¨
Ġlook ing
d ing
æĬ ĺ
è¾ ĳ
è¿Ļä¸ª éĹ®é¢ĺ
Ġes pecially
çľ ł
âĢĿ ãĢĤ
å¥ ı
ra y
è¿ĺ åı¯ä»¥
åĪĽ ä½ľ
com ing
Ġmulti ple
éļ Ĳ
æ³ ¡
æłĩ åĩĨ
Ġm il
éľĢè¦ģ æ³¨æĦı
Ġanx iety
æĶ¹ è¿Ľ
å± ĭ
æ±¡ æŁĵ
ç¼ĸ ç¨ĭ
è´¹ çĶ¨
Ġev alu
imate ly
Ġlit er
ogra ph
Ġse arch
1 6
en ced
Ġmeth ods
çĥ Ī
æ¨¡ å¼ı
çĬ¶ åĨµ
æĶ¹ åĸĦ
å¤ļ æł·
c er
å¥ ĸ
Ġsat is
Ġwebs ite
åĬ ŀ
åģ¥ èº«
Ġglo bal
Ġas k
Ġplatform s
Ġdise ases
çİ° è±¡
t ics
æ± ģ
åĪ¤ æĸŃ
Ġcon vers
Ġrelations hip
è®¾ ç½®
æ³ķ å¾ĭ
Ġmind ful
é¢Ħ æµĭ
o very
åģ ľ
çĶµ è§Ĩ
è§Ħ åĪĻ
ak en
Ġimplement ing
is ing
åıĤ åĬł
æĥħ ç»ª
Ġprovid ed
æ·± åħ¥
Ġprogramm ed
Ġrelev ant
çļĦç ĥ
çĸ ¾çĹħ
åĮ» çĶŁ
åĪĽ å»º
Ġgener ate
æĶ¶ åħ¥
ä¼ ĳ
iz es
Ġtrans form
éģ µ
ast ic
åĳ Ī
æ¯ı ä¸ªäºº
è¿ Ķ
i et
Ġv oice
éĢ Ķ
æĶ¾ æĿ¾
åį ´
èĥ ľ
Ġst ructure
æĹ¶ å°ļ
Ġ Q
Ġel se
du c
Ġem p
èģ ļ
è´ §
ac hes
ç§ Ģ
an ks
Ġn ight
Ġprofessional s
Ġb as
è´ µ
e c
Ġdivers ity
it es
d r
åĽ° éļ¾
ĥ åľ
åŀ ĥåľ
åŀĥåľ ¾
Ġd rug
ç¢ ³
Ġn ame
åĮĸ çļĦ
a id
æľĢ å¤§
æĳ Ħ
ç®Ģåįķ çļĦ
Ġw arm
Ġd one
Ġfun ction
as c
å¼º è°ĥ
Ġdem and
Ġvis ual
Ġup d
æŃ£ åľ¨
Ġsim ilar
éĢ Ĵ
æ¯ Ľ
éĶ »
ent ly
Ġvalu able
Ġdis aster
ä¸Ģ èĪ¬
æ´ ²
ĠR eg
Ġdiscrim ination
åĨĻ ä¸Ģç¯ĩ
Ġgovern ment
Ġ å¥½çļĦ
5 00
ly ing
Ġpre v
Ġpre pare
Ġproble ms
è· ³
Ġpro m
åĨ ²
å®ī è£ħ
éĶ» çĤ¼
æµ ĵ
è ¹
åºĶçĶ¨ ç¨ĭåºı
n g
Ġcomp et
åĪĨ åĪ«
olo gical
å® ¡
Ġtrans l
Ġdire ct
åī Ĥ
Ġsuggest ions
Ġpap er
Ġrecogn ize
t on
Ġmit igate
è®¨ è®º
äºĴ åĬ¨
ĠE ar
Ġam azing
c re
é¦ Ī
Ġinvol ved
f ace
æľī åħ³
) )
Ġex ce
Ġproduct ivity
è Ń
é¦ Ĩ
Ġsound s
Ġidentify ing
] ,
é¾ Ļ
Ġf it
Ġcontribut e
th s
friend ly
e le
if ied
iven ess
ite ly
Ġ X
Ġl ed
åĿ ı
Ġhist or
Ġd at
Ġjour ney
Ġ }
Ġse lect
æ¼ «
Ġcon duct
è¿Ľ ä¸ĢæŃ¥
ç»Ļ æĪĳ
Ġl if
è£ħ ä¿®
ä¸º ä»Ģä¹Ī
äº ¬
Ġn av
Ġwho le
ç ¹ģ
åĨ ľ
æĶ »
Ġb reat
Ġm iss
é¾ Ħ
t t
s w
Ġb ar
è¯· éĹ®
èģĶ ç½ĳ
Ġatt ract
æĤ¨ åı¯ä»¥
O ne
åħħ åĪĨ
r ing
Ġå½ĵ çĦ¶
re am
Ġev ol
Ġs n
ĠE m
m osp
Ġcho ose
v iew
Ġar r
Ġs leep
end ed
æŀ ¶
Ġveh icles
Ġf resh
Ġorganiz ation
è¿Ļ æ®µ
æ± ¤
ĠI nt
Ġcont ext
åı¦ å¤ĸ
Ġoce an
æĦŁ åıĹ
Ġpollut ion
ur b
æī§ è¡Į
erson al
ĠHe alth
ä¼ĺ çĤ¹
Ġatt ention
æľī çĿĢ
é£Ł æĿĲ
Ġer r
çļĦæĿ ¥
çļĦç Ī
èŃ ¦
è· Ł
æĹħ è¡Į
èĴ ľ
çļĦæĢ Ŀ
Ġchat bot
çļĦ éľĢæ±Ĥ
çķ ¥
Ġfeel ing
Ġimplement ed
ç¤¾ åĮº
çļĦ å»ºè®®
æĲ ħ
éĹ »
åıį é¦Ī
çĽ´ æİ¥
æĺ ¥
it able
æĪĳ ä¼ļ
åį ±
èī¯ å¥½
Ġl iving
åıĺ éĩı
ĠB ut
Ġcomple te
Ġtre nds
Ġm akes
ä»Ĭ å¤©
Ġdist ribut
Ġcomm it
Ġat mosp
ä¼ ´
Ġsens ors
Ġs w
æĹł è®º
om en
æĶ¿ åºľ
Ġchall enge
Ġt urn
çĲĨ è®º
p ar
Ġwrit e
ç»ı åħ¸
em ember
é¥ Ń
æĸ¹ ä¾¿
Ġc u
Ġval ue
Ġf und
p ose
è°ĥ æŁ¥
çĿ ¡
Ġcommunic ate
Ġdise ase
Ġrese arc
Ġl ack
arn ing
ĠP ark
çĦ ¦
é«ĺ åº¦
Ġr ather
å® £
çĪ ¶
éĺ ¶
è® ¢
çĥ §
Ġhig her
Ġsumm ary
ĠA ut
çļĦæ ³
Ġe le
is ms
Ġrel i
ä¹Ł ä¼ļ
f ra
åĳĬè¯ī æĪĳ
æĬ ½
Ġsitu ations
Ġmar ine
æĥ³ è¦ģ
in ci
in al
Ġg ain
Ġdiffere nce
æľºåĻ¨ äºº
æµģ ç¨ĭ
ĠC hat
ç½ĳ ç«Ļ
æľ «
Ġcol or
Ġas pect
ç½ Ĺ
ĠE duc
Ġde ploy
Ġbeaut y
æĤ £
ruct ion
it ut
æĿ Ł
è®© æĪĳä»¬
éķ¿ åº¦
ul es
æ¶ī åıĬ
Ġdig ital
Ġexist ing
ĠO r
\_ \_
Ġback ground
çĹ ĩ
æ¯ı å¤©
p ython
Ġfarm ers
Ġcontin u
" :
Ġg iven
å°ı æĹ¶
Ġmom ent
2 00
J ohn
éĿ¢ å¯¹
Ġint ro
Ġtherap y
è¿Ķ åĽŀ
å¹¶ åľ¨
Ġ z
Ġaff ord
ä¸ Ŀ
å® ½
Ġ Ã
ĠN ational
èĥ ¡
Ġexercis e
æĲħ æĭĮ
æĶ¯ ä»ĺ
éĺ³ åħī
è¯ ļ
Ġs ect
ĠS u
å¢ŀ éķ¿
ç¾İ ä¸½
Ġw a
ä»¥ä¸ĭæĺ¯ ä¸ĢäºĽ
èĽĭ ç³ķ
Ġ ill
æ¸ħ æĻ
et ry
æ¢ ¦
ç¾İ åĽ½
ä» į
one y
Ġecosystem s
æĮĩ å¯¼
d ef
9 9
æŁ Ķ
pp ed
Ġlim it
çİ ī
Ġacad emic
Ġrestaur ants
Ġhe ad
ä¿¡ ä»»
ast ers
å² ģ
ak ers
1 4
A s
æł ¡
é«ĺ æķĪ
ph as
y n
ç¨ĭ åº¦
è¾ £
ä¸Ĭ éĿ¢
å®¶ å±ħ
ter m
ç¾İ é£Ł
Ġo vers
å® ĺ
Ġind ic
ĠY our
S t
å½¢ è±¡
è´ ¡
åº Ĭ
ĠS c
ag ra
çľŁ æŃ£
o int
id s
are nt
éĵ ¶
èģ Ĭ
Ġreg ular
ä¼ĺ ç§Ģ
Ġcol le
çĸ ĳ
Ġsub ject
Ġgreat er
Ġst ore
åŁ¹ è®Ń
Ġim ag
Ġan sw
ä½ Ļ
Ġsp ot
åĪĨ åŃĲ
Ġaud ience
p et
Ġv ers
Ġtra il
åĭ ĩ
er ous
Ġguid ance
Ġspe ech
åĵ ²
æĺ¯ çĶ±
è´¡ çĮ®
åĲĪéĢĤ çļĦ
è®¾ æĸ½
ä»ĸ äºº
ens ive
åĢ ¾
al ing
Ġproject s
å ³
Ġt akes
ç» ©
T hat
Ġb ro
iv ed
Ġ &
åĿ Ĳ
place ment
è¿ŀ æİ¥
çļĦç¤ ¾
ĠT ra
Ġrel ax
u fact
éģ į
Ġsur v
åı£ åĳ³
Ġcreat ivity
o f
å¨ ģ
çļĦç ł
Ġbreat h
Ġpl aces
Ġdesc rib
èĭ± è¯Ń
Ġdam age
or ation
ä¸º æĤ¨
if t
Ġc ase
å¹´ é¾Ħ
Ġp ress
çĶ ľ
éĩ İ
æĹħ æ¸¸
Ġt aken
in ed
Ġcon cept
æĴ Ń
Ġinterest ing
è· µ
Ġse a
6 0
Ġf oot
ĠN ame
Ġresearc hers
éĢ ģ
Ġwe e
) ;
çļĦ åħ³éĶ®
ä¼ ½
ele br
å¡ ĳ
W e
ç»ı å¸¸
Ġpopul ations
åħ¬ å¼ı
or n
çĩ ĥ
äºº çĶŁ
1 7
æİ¥ åıĹ
Ġloc ation
Ġin equ
Ġinter vent
Ġinterest ed
Ġdefin itely
Ġassist ance
è¿Ļ ä¸Ģ
åĲĪ åĲĮ
ä¼ĺ åĬ¿
çļĦ å·¥ä½ľ
Ġ1 2
Ġmo v
åģ ı
åŃĺ åĤ¨
us ive
æĹ ı
ï¼ī ï¼Į
Ġg as
Ġinterest s
æ¸ħæĻ °
Ġg ard
çĸ «
Ġs ay
å¤ «
g es
èĲ ¨
ä¸ļ åĬ¡
ä¸ª æĢ§
åĲ ¯
Ġeng agement
Ġb ig
éľĢè¦ģ èĢĥèĻĳ
Ġpr inci
åĳ¨ åĽ´
Ġopportun ity
çģ ¾
èĹ ı
re l
ç¼º çĤ¹
Ġhapp y
åĴĮ åħ¶ä»ĸ
av a
Ġestab lish
é¸¡ èĽĭ
i king
ĠT rans
rast ructure
fore st
èİ· åıĸ
èĦ ļ
in ally
èµ ı
Ġdel icious
Ġresult s
è§Ĥ å¯Ł
å®ŀ è·µ
Ġl ast
Ġpol it
æĢ§ èĥ½
F or
b i
çĽ¸ ä¿¡
ff ee
Ġph r
Ġfore st
ell ing
æµģ è¡Į
at ic
å¤§ å®¶
ĠIn st
æķ° åŃ¦
æī ©
å®Į åħ¨
å¼ķ èµ·
es e
è½¬ æį¢
Ġaffect ed
Ġrobot ics
ç»¼ ä¸Ĭ
Ġpro p
è®© äºº
æ² ³
ä¸Ń æľĢ
Ġaut onomous
Ġha ving
Ġtri p
ur y
Ġbi ased
Ġconsider ations
Ġpartic ular
åį ł
æİ¨ å¹¿
Ġiniti atives
ial s
åĳ³ éģĵ
Ġtreat ments
Ġem phas
çĭ¬çī¹ çļĦ
Ġl ay
æĶ¿ çŃĸ
æĢİ ä¹Ī
ron ic
pl ay
Ġco ok
è¿Ľ åħ¥
è½ ®
Ġvol unte
Ġra in
ĠM on
Ġconsum ption
èĽĭ çĻ½
ĠS oc
å£ ¤
Ġrout ine
Ġimpro ved
T o
äºº çī©
è¯» èĢħ
Ġgo al
å¹¿ åĳĬ
éķ¿ æľŁ
Ġe y
H e
Ġout do
Ġcu is
Ġa way
Ġbo oks
Ġtop ic
å¤§ åĪ©
h ouse
Ġon es
ç§ Ł
' :
æĪ¿ å±ĭ
ç§» åĬ¨
Ġdis asters
est s
ill ing
ç»¿ èī²
åĵ² åŃ¦
æĪĲ åĪĨ
Ġocc ur
ľ ä¼½
åľŁ å£¤
çļĦ ä¸»è¦ģ
çİ° å®ŀ
Ġanim al
é¢Ĩ å¯¼
Ġview s
éĤ ®
æ°§ åĮĸ
ath y
éģĵ å¾·
ç¤¾äº¤ åªĴä½ĵ
ĠP ersonal
Ľ åĽ´
Ġpur ch
Ġcount ry
Ġrem ind
å¯ ¸
Ġr ights
çļĦ çİ¯å¢ĥ
ĠP r
Ġl ine
ib r
é© ¾
Ġm aj
Ġover come
Ġne xt
æīĢ è¿°
è§Ħ å®ļ
Ġinteract ions
Ġconf lic
Ġwh y
ç³» åĪĹ
å° ¼
ib ly
çīĽ å¥¶
Ġrespons es
s es
åŃ¦ ä¼ļ
b ol
Ġstand ards
ul ner
å¯¹è¯Ŀ åĨħå®¹
l ished
çļĦæĢ §
çĶŁæĢģ ç³»ç»Ł
an n
æĥħåĨµ ä¸ĭ
å¯» æ±Ĥ
Ġh old
d en
åį ĥ
Ġment ion
ĠMan y
çĽ´ åĪ°
éģ Ĺ
he l
Ġbelie ve
ar ies
æľī ä¸Ģä¸ª
1 3
Ġatmosp here
Ġm or
æĹ¥ æľŁ
ä¹ ħ
ä½ł å¥½
Ġaddress ing
ĠâĢ ĵ
çļĦåľ° æĸ¹
m ing
Ġcan not
Ġman ufact
Ġp ie
ic ing
Ġstud ies
ç¾İ åĳ³
ĠAmeric an
ĠN LP
Ġacc ording
ms elves
èĦ Ĥ
èĩª ä¿¡
æīĢ éľĢ
Ġthe mselves
Ġremot e
åŁ¹ åħ»
å®ī æİĴ
ä½ł éľĢè¦ģ
Ġreg ard
ir ing
è¯Ĩ åĪ«
Ġart icle
æģ Ĵ
æĢ» çļĦæĿ¥
Ġal ign
æ± ł
ten ance
fact ion
åĬ¨ ä½ľ
çļĦç ©
ç¼ ©
æĢ ¥
Ġ1 00
Ġtest ing
åŃĹ æ¯į
å¹´ è½»
åĪ¶ éĢł
Ġs we
å° º
he ns
æ°´ æŀľ
Ġinf rastructure
èī² å½©
æĢ»çļĦæĿ¥ è¯´
æľī ä»Ģä¹Ī
te xt
è½¦ è¾Ĩ
Ġp ay
ro p
Ċ ĠĠ
Ġcaus ed
Ġcor rect
Ġ ì
èĥ ŀ
ĠM ed
ç²¾ ç¥ŀ
æ°ĶåĢĻ åıĺåĮĸ
ĠR ed
äºĴ èģĶç½ĳ
Ġeng age
åĪĨ ä¸º
ĠD ata
Ġful l
en c
éĩį æĸ°
æŃ£ç¡® çļĦ
çļĦæ° Ķ
åıĮ æĸ¹
Ġcom es
åı¤ ä»£
æŁĲ äºĽ
åĳĪ çİ°
Ġto day
ag ed
æĪĳ åı¯ä»¥
æĹ¥ å¸¸
æ» ĳ
Ġcl in
Ġ \
Ġo bs
Ġart ificial
Ġexce ll
çļĦç ¬
all s
Ġprodu ce
ĠD es
os s
è¹ Ī
Ġdra w
Ġlet ter
Ġadv ice
Ġhigh ly
çĬ ¯
ç»¼ä¸Ĭ æīĢè¿°
æ»¡ æĦı
Ġprinci ples
èĮ Ħ
Ġfeel ings
çļĦæ ´
Ġh om
Ġf ail
Ġcro p
å§ ľ
Ġquest ion
Ġdis abilities
èĪŀ è¹Ī
Ġimp lications
r al
Ġs ing
4 0
Ġfam il
Ġgovern ments
Ġrec ord
å½¢ çĬ¶
Ġbe gin
is es
çļĦæĥ ³
ach ine
è° ±
Ġv ulner
Ġpro per
Ġovers ight
è´Ł éĿ¢
Ġem ail
Ġnew s
Ġexpl oring
Ġf avor
æ¥ ¼
å® ľ
Ġun ivers
å·® å¼Ĥ
ï¼ī ãĢĤ
è§£åĨ³ éĹ®é¢ĺ
Ġfam ous
g n
Ġmess age
at itude
Ġc ra
Ġco ver
æ·± åĪ»
åı¯ä»¥ éĢīæĭ©
çĶŁæ´» ä¸Ń
ç§į ç±»
Ġsm art
on str
ve y
çĶ ²
Ġreg ularly
ĠS m
æĦŁ è§ī
Ġthough t
Ġex h
c ure
ç» ĺ
è®¤ è¯Ĩ
Ġo ld
æĦ ī
ç§° ä¸º
Ġfiel ds
Ġcons ist
ã ģ
ç»Ĩ èĥŀ
Ġh ours
8 0
al king
è§ī å¾Ĺ
ç» Ŀ
ä½ł ä»¬
ĠEng lish
Ġsignificant ly
Ġs ource
Ġan t
Ġeducation al
Ġtas k
Ġhand le
æĲ ľ
ĠS p
Ġcall ed
Ġter ms
æ² ī
Ġw in
duct ion
Ġmod ern
Ġcuis ine
å¥ Ĺ
è§ ¦
olut ely
ç« ¥
p ite
Ġf elt
Ġcomp re
Ġw ond
è¿Ĳ è¡Į
Ġres il
çĽ¸ ä¼¼
éĩĳ èŀį
çĪ± æĥħ
ç¬ Ķ
èĪ ª
è° Ī
åĬĽ çļĦ
æľī æīĢ
æ½ ľ
ul ate
Ġdetect ion
å®£ ä¼ł
Ġmat ter
éĩı åŃĲ
W rite
ç»ĵ åĲĪ
ç»ı è¿ĩ
Ġdevelop ers
è ª
Ġ ---
äºº éĻħ
çŃ ¾
ï¼ļ âĢľ
Ġinnov ative
ãĢĤ âĢĿ
å½ ¼
é¥ ¼
è¿ĩ åº¦
Ġplan et
åħ °
å¸ ģ
æķ ¬
Ġleg al
Ġlo t
æĪĲä¸º äºĨ
i ate
Ġm is
åģĩ è®¾
çļĦ æĸĩç«ł
ĠCom pan
Ġd oc
Ġcare ful
Ġe ver
æĪĳä»¬ å°Ĩ
ä¾ĭ åŃĲ
ä¹ ³
ä½ľ èĢħ
åĲ §
æļ ´
Ġrem ember
çĽ® çļĦ
Ġp ut
å¸¸è§ģ çļĦ
Ġf est
å»º è®¾
å®ŀ çĶ¨
Ġact ive
çª Ĺ
ou th
åİŁ çĲĨ
Ġtry ing
è¿ ·
çĽ¸ åĲĮ
éħĴ åºĹ
An other
æľĢ ä½³
Ġanaly tics
Ġper pet
ip ment
Ġ å¦Ĥæŀľ
è§Ĥ ä¼Ĺ
Ġc elebr
Ġhe av
Ġmed itation
å¤§ æ°Ķ
A nd
ä¸į éĶĻ
Ġwhe ther
s et
Ġdem onstr
ä¸Ģ æ¬¾
æĶ¶ éĽĨ
éĻĲ åĪ¶
Ġ ing
Ġrev olution
çľ ģ
Ġsc ience
çĽ® åīį
Ġthink ing
± ä¹Ĳ
è¯¾ ç¨ĭ
Ġp ack
Ġim age
lo c
Ġst ories
uc k
Ġsatis faction
Ġcollect ion
h o
èµ ŀ
éĿ¢ ä¸´
Ġl a
Ġsym bol
Ġem b
Ġhabit ats
Ġlow er
Ġcontin ues
éľ ĩ
åĵ Ī
ĠT ake
Ġenviron ments
Ġth ree
Ġen c
ĠA cc
æĦı åĳ³
åİ ¨
ch an
ĠH um
Ġtr ue
åĪĩ æĪĲ
s ing
âĢĶ âĢĶ
åĩº æĿ¥
Ġreg ion
Ġinter pre
Ġdiagnos is
é ŀ
Ġdo ing
Ġr un
Ġco ffee
Ġmaj or
Ġmindful ness
Ġafford able
çĻ ¾
Ġdetail ed
éĿŀå¸¸ éĩįè¦ģçļĦ
çļĦæ² ŁéĢļ
çļĦæķ ħ
åĢĴ åħ¥
Ġthem es
Ġnet work
ï¼ī ï¼ļ
ĠUn ited
çļĦæĮ ĩ
ort s
åį« çĶŁ
Ġplan ning
æĥ ł
åī ª
ĠPro v
çļĦ åºĶçĶ¨
Ġp eri
Ġaccount able
çī Ļ
çļĦç ģ
Ġcho ice
ĠC omm
id ents
çļĦ å®īåħ¨
å¹¶ ä¸į
å¤ªéĺ³ ç³»
Ġrece ive
Ġclo se
çļĦæĹ¶ åĢĻ
Ġchang ing
ä»·åĢ¼ è§Ĥ
Ġperpet u
Ġse ason
Ġm en
Ġlearn ed
Ġsitu ation
Ġre place
he ad
è®© æĪĳ
åľ¨ ä¸Ģèµ·
çļĦç© º
éľ ²
Ġen ough
å±ķ çİ°
Ġlead ers
an cing
Ġtemper ature
åı «
Ġ3 0
æĦıåĳ³ çĿĢ
æ± ĩ
ĠGo vern
Ġfocus ed
u ro
Ġsim ple
Ġh iking
æ¯ Ĵ
Ġcompre hens
äº Ī
Ġcreat ed
con d
é¡ µ
ĠW or
è¯ģ æį®
Ġwork place
Ġcharact ers
çļĦ è®¾è®¡
Ġme chan
ĠD is
ç¥ŀ ç§ĺ
å· ŀ
ĠO n
< /
ç§į æ¤į
Ġpat h
Ġlim ited
Ġsol ar
çļĦæ ı
2 2
Ġappreci ate
å¿« ä¹Ĳ
æĦŁ åıĹåĪ°
èĢ Ĺ
m ed
ic ine
Ġnot e
å½ĵ åīį
æĪĳä»¬ åºĶè¯¥
Ġse en
ä¸Ģ åĲį
å°½ åı¯èĥ½
è¿Ĳ ç®Ĺ
è§Ĵ åº¦
Ġequ ipment
Ġsp read
è ¸
è® ¿
åı¥ è¯Ŀ
æĮ ¥
Ġpur pose
è¯· ä½ł
Y our
ari an
ä» ª
Ġperspect ives
åĩº äºĨ
å©ļ ç¤¼
Ġexcell ent
ĠEns uring
Ġre ach
éĺ¶ æ®µ
ä¿Ŀ éļľ
Ġemp athy
ĠM y
çĳ ľä¼½
Ġ ver
ab el
ĠPre dict
Ġmain tenance
è¯Ħ ä»·
Ġ ult
åĴ ¨
o x
åĴ¨ è¯¢
Ġshare d
in a
l ist
Ġoutdo or
Ġthough ts
in ating
éĴ ±
Ġfra me
éĺ ¿
åĪ© æ¶¦
çļĦæİ ¨
åį ļ
Ġrec ent
Ġal tern
are d
= =
Ġro ad
äºĭ é¡¹
g ed
y nt
Ġspe nd
ç½ ª
åıĸ å¾Ĺ
é ¹
l i
æĹ¶ æľŁ
ä¸¥ éĩį
å¿ Ĩ
å© ´
æİ¥ ä¸ĭæĿ¥
ĠEar th
ĠChat bots
Ġset ting
ç¥ Ŀ
éĶĢåĶ® é¢Ŀ
ä¼ ¦
Ġread ing
æİ¢ è®¨
a ign
éŀ ĭ
Ġyou ng
Ġcare er
Ġteac hers
çļĦ è´¨éĩı
å±ŀ äºİ
Ġeas ier
Ġscient ific
ç¾İ åħĥ
Ġsp ir
åĬ ³
çļĦæĶ ¯
r ist
èµĦ äº§
çĶŁ åŃĺ
èĩ³ å°ĳ
å§ ¿
Ġvide o
Ġa im
å®Ŀ å®Ŀ
çĪ¶ æ¯į
________ ________
al ities
Ġb ud
Ġstre et
Ġ æĺ¯
æĸ¹ ç¨ĭ
ä¸ĸ çºª
c hes
ear ch
æĴ °
Ġeng ine
Ġdis placement
ĠRo bots
erv ised
é¡ ¶
ou d
Ġw alk
Ġemerg ency
èģ ĺ
n al
Ġdat as
åĢ º
åĲİ çļĦ
å¾Ī å¥½
Ġmy self
çļĦæī ĭ
Ġus age
Ġsh own
æ® Ĭ
Ġtyp ically
u ly
æĸ° éĹ»
æĽ ¿
Ġor ig
è½» æĿ¾
æĺ¾ ç¤º
Ġado pt
èĤ¡ ç¥¨
Ġp arent
a ps
æĢĿ æĥ³
Ġmarket ing
èĻ «
éĥ¨ éĹ¨
çļĦæķ Ī
Ġcomfort able
åŃ¦ä¹ł åĴĮ
Ġfore cast
ict ion
Ġget ting
Ġtre es
av ing
çļĦ åŁºç¡Ģ
read y
æĸ° é²ľ
go ing
¹ é¥
Ġev idence
¹é¥ ª
ç§ ĭ
æľī å¾Īå¤ļ
éĿ¢ è¯ķ
éģĩ åĪ°
ç»Ļ å®ļ
ir c
åı¯ä»¥ æł¹æį®
é©¾ é©¶
å·§ åħĭ
Ġst unning
çļĦæ ¦Ĥ
æ¡ Į
ĠJ ohn
ul ation
åıĤ èĢĥ
Ġf lex
çĦ¦ èĻĳ
ym akers
Ġfor ms
s h
v al
ĠS o
c o
æİ¨ åĬ¨
èħ ¿
çī¹ æ®Ĭ
Ġen ab
å°Ĩ ä¼ļ
æĶ¯ åĩº
åĿļ æĮģ
çº¢ èī²
Ġopt ion
Ġstart ed
r ation
Ġpo etry
Ġp ort
g en
èª ī
Ġdel iv
çĶ ļ
éĢ »
éĢī é¡¹
Ġg round
å½¼ æŃ¤
an a
çļĦæĹ ¥
åľ¨ çº¿
Ġse cure
Ġ æł¹æį®
é¥® æĸĻ
Ġgr atitude
ç¬¬ ä¸ī
Ġs ong
Ġpoint s
Ġal ready
çļĦçĪ ±
ĠTe chn
Ġreal ity
çı Ń
Ġs ince
Ġpopul ation
y ond
b or
ĠSoc ial
æıĲ åıĸ
å·¥ ç¨ĭ
a ff
äº¤ æĺĵ
Ġwor th
å¡ «
å¨ ±ä¹Ĳ
Ġdo g
ĠAr t
ç¡ ¬
æµ· æ´ĭ
åĨ Ĵ
çī Ī
Ġprogramm ing
ĠAs s
ĠM achine
åĢ¼ å¾Ĺ
è¯· è¾ĵåħ¥
å£° éŁ³
Ġexercis es
åħī çº¿
æ³ķ åĴĮ
Ġfeat ure
e ff
è¿Ľ æŃ¥
å¥³ æĢ§
Ġefficient ly
çļĦæĬĢ æľ¯
Ġgen etic
ä»¤ äºº
è´ ¦
çļĦ äº§åĵģ
åİ ļ
åĴĮ æĸĩåĮĸ
éĻ Ħ
Ġmo b
ç»¼ åĲĪ
t ers
æľī ä¸Ģ
å¦ Ĩ
åį Ī
Ġout side
Ġprop ert
éĤ® ä»¶
ä¸» ä¹ī
Ġpolic y
èĩª èº«
Ġnav igate
Ġst y
çĶµ èĦĳ
Ġab ilities
Ġfac ed
çļĦç ¼
çļĦ å°ı
è ķ
Ġt one
ig ation
åıĤ æķ°
èĽĭçĻ½ è´¨
ä½ Ľ
çĶļ èĩ³
Ġsk in
èĴ ¸
æĭ Ľ
éŃ Ķ
ash ion
Ġing red
æĹ ĭ
Ġcamp aign
Ġm ount
Ġcons id
Ġmus e
n ter
w ater
ä¼ļ è®®
Ġprotect ion
ä¿Ŀ éĻ©
Ġcro ps
og le
éļı æĹ¶
æļ Ĺ
i um
ä¹ ı
Ġdi et
l ies
çĶ¨ æĿ¥
ĠEn coura
æĬ Ĺ
ap an
éĺ² æŃ¢
W ow
çļĦ åŁºæľ¬
å¹³ æĸ¹
Ġst ep
åı¯ éĿł
è¡¨ æĺİ
Ġpredict ions
Ġsym pt
Ġdiagnos es
åħ¬ åĽŃ
Ġsupp ly
Ġprev ious
ç»Ħ åĲĪ
. ,
çļĦ è¿ĩç¨ĭ
æķ ı
s u
ar is
çķ ħ
oc ol
æĲľ ç´¢
it le
éĨ Ĵ
é¡¾ å®¢
éĢ» è¾ĳ
éĿŀå¸¸ éĩįè¦ģ
ĠB i
å·¦ åı³
am m
Ġevery thing
æĺ ł
Ġincre d
Ġpe ace
èľ ľ
Ġmuse um
çĭ¬ ç«ĭ
Ġcomprehens ive
Ġr ates
/ /
Ġra d
åĦ¿ ç«¥
çī¹ èī²
ĠPredict ive
å¼ķ åĬĽ
l er
å° ¤
ic ro
è¡ ¥
Ġdeterm ine
çļĦ åĨħå®¹
Ġcom pl
Ġgreen house
èħ Ĳ
Ġhigh light
Ġpart ners
Ġdo ct
çļĦ ä½¿çĶ¨
æŃĮ æĽ²
æĮĩ åįĹ
ĠA f
æľº æŀĦ
éĢ Ģ
Ġpoem s
å¿ĥ åĴĮ
Ġatt end
çļĦæ¸ ¸
Ġs ide
al es
Ġmention ed
ĠA bs
Ġhistor ical
Ġle ft
ä»¥ä¸ĭ åĩłä¸ª
åıĹ æ¬¢è¿İ
èıľ åĵģ
Ġrem ain
æ ĩ
Ġtour s
ł éģĵ
Ġerr ors
æľº åĪ¶
æ ¦
æĤ£ èĢħ
m ore
Ġexpert s
çļĦçł Ķç©¶
ç»ĵ æĿŁ
Ġwrit ten
çł Ķ
Ġe t
in put
æ°Ķ ä½ĵ
è ļ
æĥ Ĭ
Ġa ge
éĩį å¤į
å¼ ¹
åŃ ¤
Ġsympt oms
Ġbelie f
' d
i ol
Ġ1 8
åħħ è¶³
çı į
force ment
æĸ Ĺ
ª èĮĦ
Ġ1 5
ä¸Ģä¸ª äºº
Ġapp lic
è´ ¥
ä½į äºİ
éĻ¤ äºĨ
= "
ä¸ī è§Ĵ
æĢĿ ç»´
åį ·
Ġf ru
ĠCol labor
Ġpr im
Ġrequire d
Ġw atch
è°ĥ åĳ³
ç»ĵ è®º
on y
Ġgu ide
Ġm ax
ĠC ould
Ġadv ent
ĠO verall
çļĦæĬ ķ
Ġexp er
å ĺ
ic ial
ost er
çļĦ é¢ľèī²
Ġoper ations
éĥ ģ
Ġm oney
le y
c ling
Ġo il
çļ® èĤ¤
Ġg e
Ġb at
ĠP h
Ġsc he
Ġelect ric
v est
Ġch ain
Ġcap abilities
ir d
è¯ģ æĺİ
æľĢ å¥½
iv il
Ġdepend ing
Ġs ave
Ġpract ical
Ġcult ures
çĽ¸åºĶ çļĦ
s y
çļĦç ²
Ġbeh ind
æĹ¶éĹ´ åĴĮ
å¹ ħ
ĠA g
Ġeffect iveness
A d
ĠO f
Ġany thing
å·§åħĭ åĬĽ
Ġm ist
Ġlangu ages
ĠM ake
å «
æ£ ®
ĠCon t
ĠAbs olutely
Ġinvest ment
m at
çļĦæķħ äºĭ
æ¬ §
Ġspe ed
çļĦæ¸ ©
Ġc ities
åĨĻ ä½ľ
Th anks
Ġd ed
åĪĨ éħį
Ġd ark
Ġsupport ing
å¹ ķ
ĠK e
éĽ ¶
Ġsh aring
Ġh ouse
è®¤ çŁ¥
Ġsurround ing
Ġredu ced
Ġf u
Ġst or
Ġab s
T om
c ent
ĠEduc ation
Ġth r
ot t
ĠTh at
Ġhe ar
un g
Ġbe yond
ĠC o
ro om
è¯Ĺ æŃĮ
re me
Ġlit tle
Ġg ames
ä¹ĭ åĲİ
éĥ½ ä¼ļ
è¯Ń éŁ³
ç¬ ĳ
çī¹ å®ļ
ç¬¬ ä¸Ģ
Ġdep ression
Ġinnov ation
ĠF r
Ġcomput er
c an
å³ °
ç¼ĸåĨĻ ä¸Ģä¸ª
Ġintern ational
Ġcan cer
åŃ¦ èĢħ
Ġdisc over
he t
Ġcomp os
Ġrec y
Ġ2 00
åĲ« æľī
çĹ Ľ
ç¼ĵ è§£
Ġfre qu
çĶ ³
ĠM ar
çļĦ éĢīæĭ©
Ġun t
Ġreg ions
Ġop in
ĠGovern ments
æ¶ Ĥ
åĨħ å¿ĥ
ä¸Ĭ æľĢ
ä»į çĦ¶
l ier
æ³ ³
äºĴ çĽ¸
ĠSt ud
az on
Ġar ch
Ġche m
çļĦ èĥ½åĬĽ
çļĦ ä¸Ģä¸ª
Ġa p
Ġre d
Ġw omen
Ġpro te
Ġfind ing
å§ »
éĢĤå½ĵ çļĦ
Ġfor ward
å¯¹ è±¡
Ġwa it
Ġconsid ered
du le
b acks
Ġclin ical
åħ· å¤ĩ
éº ¦
Ġon going
åĨ Ľ
Ġf ar
åĴĮ è°
XX X
Ġpolit ical
Ġcam er
çļĦ è¡Įä¸º
æĦı å¤§åĪ©
Ġapp s
åĩı è½»
Ġread ers
å©ļ å§»
æ° ¸
o res
åħ¨ éĿ¢
ĠAf ric
Ġfavor ite
Ġm ill
Ġd ang
ĠSt ates
åĢ Ł
å¯ ¿
Ġl at
è¿ĩ åİ»
Ġtr uly
åĽŀçŃĶ éĹ®é¢ĺ
Ġco gn
ä» °
ĠJ apan
iz z
çļĦæĿ Ĳ
x x
é¢ĺ çĽ®
ri ption
éĤ£ äºĽ
Ġbud get
Ġv ast
éļĲ ç§ģ
Ġpolic ymakers
è¿ĺ éľĢè¦ģ
å¹¶ æıĲä¾Ľ
Ġswe et
Ġgener al
æ» ¤
Ġbir ds
Ġpl astic
Ċ ĉ
åĪ º
ment al
Ġincl usive
Ġtop ics
Ġs low
ä½ł èĥ½
è¶³å¤Ł çļĦ
è§Ĩ è§ī
w w
Ġ ä½¿çĶ¨
æī ¹
æ¦Ĥ å¿µ
é£Ł çĶ¨
èĢ ³
c ks
Ġfra ud
Ġingred ients
Ġf asc
åĮĹ äº¬
Ġf r
Ġmanufact uring
Ġ ä½ľä¸º
Ġbe ach
é¡ ¿
eri ous
å¤ĸ è§Ĥ
é¢Ħ éĺ²
æĿ¥ èĩª
èĤĮ èĤī
Ġd ays
Ġass ign
Ġadv ant
Ġteam s
é¢ Ĺ
now n
ĠP o
} {
Ġmin ut
it ions
Ġeas ily
ĠB l
n ame
åŃ¦ æł¡
Ġrespons ibility
åıĳ æĮ¥
Ġsens itive
çŃī äºİ
ci ous
Ġs ou
å± ı
Ġr ich
å½ĵ çĦ¶
m an
Ġinterpre t
2 4
Ġshow s
èģĮ åľº
Ġf all
è½ ½
ä¸°å¯Į çļĦ
( '
ä¿® æĶ¹
æĽ´ æį¢
A l
åı¯èĥ½ æĺ¯
Ġr ate
Ġprotect ing
f it
Ġ5 0
Ġmove ment
è§ Ī
Ġemploy ee
Ġdis ord
åĪĽ æĦı
äº§åĵģ çļĦ
æľ Ŀ
ĊĠĠĠĠĠĠĠĠ ĠĠĠĠĠĠĠ
Ġpre d
Ġoffer ing
åįģ åĪĨ
èĢĮ ä¸įæĺ¯
Th ank
æĽ ¾
Ġele ments
ç² Ĵ
Ġcour ses
Ġintegr ated
ĠC ar
agra ph
åŁº åĽł
Ġinst ead
èĦ ±
åı¦ ä¸Ģä¸ª
å¯Ĩ çłģ
Ġallow ed
éĿ¢ åĮħ
çķ ªèĮĦ
åĴĮ åıĳå±ķ
å° ģ
Ġconnect ion
åľ¨ ä¸Ģä¸ª
Ġuse ful
è¯Ń åı¥
åĪĨ å¸ĥ
è¡¨ æ¼Ķ
æľī æĹ¶
çļĦæĹ ħ
çļĦæĢ »
Ġf ashion
èĭ ¦
è¦ģ æ³¨æĦı
çĶŁ ç´ł
Ġnut ri
èĩª è¡Į
çļĦç ĭ
çĲĨè§£ åĴĮ
Ġc at
æľºåĻ¨ åŃ¦ä¹ł
Ġexh ib
åĴĮ æľįåĬ¡
fra c
e pend
Ġimpact ed
Ġ ut
æķ° ç»Ħ
ĠWor ld
Ġansw er
ers e
éª ¨
Ġart ists
åŃ©åŃĲ çļĦ
ä» Ķ
çĻ »
ĠA re
Ġco ol
Ġcogn itive
åĲĦ ä¸ª
l ike
å©´ åĦ¿
åĪĹ åĩº
å¹ »
ron t
å®¶ éķ¿
ç¼º ä¹ı
Ġcy ber
il t
Ġcapt ure
å Ĺ
åľ¨ äºİ
Ġthreat s
åĴĮ ç¤¾ä¼ļ
Ġcell s
æ¸ħ åįķ
ĠV is
æİ ī
Ġh ol
åŃĲ çļĦ
C h
è Ŀ
Ġs aid
Ġd ream
un ch
un e
ĠD on
å®¶ äºº
ç± į
æĦŁ åĴĮ
Ġexperi enced
çļĦéĩįè¦ģ æĢ§
å¼ ĥ
um p
éĺ Ĳ
Ġhabit at
è¢ ĭ
Ġj o
ç®Ģ æ´ģ
Ġb ur
Ġvisit ors
éĽ ħ
çļĦçŁ ¥
Ġent ire
è®² è¿°
äºĨ ä¸ĢäºĽ
åįı ä½ľ
ĠB us
å° ¾
çļĦæķ Ļ
olo g
Ġsign s
Ġspeak er
çļĦ éŁ³ä¹Ĳ
Ġno vel
å±ħ æ°ĳ
çļĦ åıĺåĮĸ
å°½ éĩı
Ġspir it
å®Į ç¾İ
è´ ·
å¿ħè¦ģ çļĦ
ie f
ç¤º ä¾ĭ
Ġd iv
æķ´ æķ°
Ġeconom y
Ġethical ly
éĻ Ī
Ġschool s
Ġnet works
